##a:1.0
##ab:1.4054651081081644
##able:1.4054651081081644
##ac:1.1823215567939547
##acker:1.4054651081081644
##ad:1.1823215567939547
##ade:1.6931471805599454
##ades:1.1823215567939547
##adia:1.6931471805599454
##age:1.0
##aging:1.6931471805599454
##ago:2.0986122886681096
##ah:1.1823215567939547
##ai:1.1823215567939547
##aint:1.4054651081081644
##air:1.4054651081081644
##ak:1.0
##ake:1.1823215567939547
##aking:1.0
##al:1.0
##ale:1.1823215567939547
##ali:1.1823215567939547
##alo:1.4054651081081644
##am:1.0
##ama:1.4054651081081644
##amo:1.4054651081081644
##amp:1.1823215567939547
##an:1.0
##ana:1.1823215567939547
##and:1.1823215567939547
##ando:1.6931471805599454
##ani:1.0
##ann:1.1823215567939547
##ant:1.4054651081081644
##anta:1.4054651081081644
##anza:1.1823215567939547
##ap:1.1823215567939547
##ar:1.0
##ara:1.4054651081081644
##are:1.4054651081081644
##ari:1.1823215567939547
##arium:1.4054651081081644
##ark:1.4054651081081644
##ary:1.0
##as:1.0
##ase:1.1823215567939547
##asi:1.6931471805599454
##at:1.0
##atch:1.4054651081081644
##ate:1.0
##ath:1.0
##athlon:1.1823215567939547
##atics:1.6931471805599454
##ating:1.0
##ation:1.0
##ations:1.6931471805599454
##ative:1.1823215567939547
##atory:1.4054651081081644
##att:1.4054651081081644
##au:1.1823215567939547
##ave:1.1823215567939547
##aw:1.4054651081081644
##away:1.0
##ax:1.4054651081081644
##ay:1.0
##b:1.0
##ba:1.1823215567939547
##bach:1.6931471805599454
##back:1.1823215567939547
##ball:1.1823215567939547
##bank:1.1823215567939547
##base:1.1823215567939547
##bat:1.1823215567939547
##bb:1.1823215567939547
##bba:1.6931471805599454
##bbly:1.4054651081081644
##be:1.1823215567939547
##beat:1.4054651081081644
##bee:1.1823215567939547
##bei:1.0
##bell:1.4054651081081644
##ben:1.1823215567939547
##ber:1.0
##berg:2.0986122886681096
##bi:1.4054651081081644
##bic:1.1823215567939547
##bit:1.4054651081081644
##bl:1.1823215567939547
##bla:1.0
##ble:1.1823215567939547
##bn:1.6931471805599454
##bo:1.0
##board:1.1823215567939547
##boarding:1.0
##boat:1.4054651081081644
##body:1.6931471805599454
##book:1.0
##bor:1.1823215567939547
##box:1.4054651081081644
##bra:1.1823215567939547
##bre:1.4054651081081644
##bread:1.6931471805599454
##bri:1.0
##bu:1.1823215567939547
##building:1.1823215567939547
##burg:1.6931471805599454
##bury:1.6931471805599454
##by:1.0
##c:1.0
##ca:1.0
##cake:1.4054651081081644
##cal:1.6931471805599454
##cam:1.4054651081081644
##camp:1.0
##cap:1.4054651081081644
##car:1.4054651081081644
##care:1.0
##case:2.0986122886681096
##castle:1.4054651081081644
##cat:1.4054651081081644
##cation:1.1823215567939547
##cc:1.4054651081081644
##cci:1.6931471805599454
##ce:1.0
##centric:2.0986122886681096
##ch:1.0
##cha:1.1823215567939547
##chai:1.6931471805599454
##chan:1.1823215567939547
##che:1.0
##ched:1.1823215567939547
##cho:1.0
##chu:1.1823215567939547
##ci:1.4054651081081644
##cing:1.1823215567939547
##ck:1.0
##cks:1.6931471805599454
##cl:1.0
##class:1.4054651081081644
##co:1.0
##color:1.1823215567939547
##com:1.4054651081081644
##con:1.0
##cos:1.4054651081081644
##cr:1.0
##craft:1.1823215567939547
##ct:1.0
##cture:1.6931471805599454
##cu:1.4054651081081644
##cultural:1.4054651081081644
##culus:2.0986122886681096
##cure:2.0986122886681096
##cut:1.4054651081081644
##cute:2.0986122886681096
##cy:1.0
##cycle:1.1823215567939547
##d:1.0
##da:1.1823215567939547
##date:1.6931471805599454
##day:1.0
##ddle:1.6931471805599454
##de:1.0
##den:1.4054651081081644
##der:1.0
##dgets:1.4054651081081644
##di:1.1823215567939547
##dic:1.6931471805599454
##ding:1.0
##dis:1.0
##dly:1.0
##do:1.1823215567939547
##don:1.6931471805599454
##dor:1.4054651081081644
##down:1.4054651081081644
##dra:1.1823215567939547
##drive:1.4054651081081644
##ds:1.1823215567939547
##e:1.0
##ea:1.4054651081081644
##ear:1.1823215567939547
##ec:1.1823215567939547
##ech:1.4054651081081644
##eck:1.4054651081081644
##economic:2.0986122886681096
##ed:1.0
##edd:1.6931471805599454
##ee:1.0
##eering:1.0
##ef:1.6931471805599454
##ei:1.1823215567939547
##ein:1.4054651081081644
##el:1.0
##elin:1.4054651081081644
##ella:1.4054651081081644
##em:1.0
##en:1.1823215567939547
##ena:1.1823215567939547
##ence:1.4054651081081644
##ency:1.6931471805599454
##end:1.0
##eng:1.4054651081081644
##enity:1.4054651081081644
##ens:1.4054651081081644
##ent:1.0
##entation:1.6931471805599454
##enter:1.6931471805599454
##eon:1.1823215567939547
##er:1.0
##era:1.6931471805599454
##erg:1.0
##ergy:1.1823215567939547
##eri:1.4054651081081644
##eria:1.4054651081081644
##erie:1.4054651081081644
##ers:1.0
##ery:1.4054651081081644
##es:1.0
##et:1.1823215567939547
##ete:1.6931471805599454
##eti:1.0
##ette:1.4054651081081644
##eu:1.4054651081081644
##ew:1.1823215567939547
##ex:1.1823215567939547
##f:1.1823215567939547
##fa:1.0
##fe:1.4054651081081644
##fect:1.6931471805599454
##fest:1.4054651081081644
##ff:1.4054651081081644
##fi:1.1823215567939547
##fication:1.6931471805599454
##fin:1.6931471805599454
##fire:1.0
##firm:2.0986122886681096
##fl:1.4054651081081644
##fle:1.1823215567939547
##flow:1.6931471805599454
##flower:1.1823215567939547
##fo:1.1823215567939547
##for:1.4054651081081644
##form:1.6931471805599454
##fr:1.0
##free:1.0
##front:1.4054651081081644
##ft:1.1823215567939547
##fu:1.0
##ful:1.0
##fulness:1.0
##g:1.0
##ga:1.0
##game:1.6931471805599454
##gan:1.0
##gar:1.6931471805599454
##gate:1.6931471805599454
##gating:1.4054651081081644
##ge:1.0
##ged:1.6931471805599454
##gen:1.4054651081081644
##ger:1.4054651081081644
##get:1.4054651081081644
##gh:1.0
##gi:1.1823215567939547
##gil:1.6931471805599454
##ging:1.4054651081081644
##gist:1.4054651081081644
##giving:1.4054651081081644
##gl:1.1823215567939547
##gli:1.4054651081081644
##gn:1.6931471805599454
##go:1.0
##gon:1.4054651081081644
##gos:2.0986122886681096
##gra:2.0986122886681096
##grad:1.1823215567939547
##grapher:1.4054651081081644
##graphy:1.4054651081081644
##gs:1.4054651081081644
##gur:1.4054651081081644
##h:1.0
##ha:1.6931471805599454
##ham:1.1823215567939547
##han:1.1823215567939547
##hand:1.1823215567939547
##har:1.0
##hd:2.0986122886681096
##he:1.1823215567939547
##head:1.1823215567939547
##hel:1.1823215567939547
##hen:1.1823215567939547
##her:1.0
##hey:1.6931471805599454
##hi:1.1823215567939547
##hiti:1.6931471805599454
##ho:1.1823215567939547
##hoe:1.4054651081081644
##hol:1.4054651081081644
##holder:1.6931471805599454
##hom:1.4054651081081644
##hoot:1.0
##hop:1.0
##hore:1.4054651081081644
##house:1.0
##how:1.0
##hr:1.4054651081081644
##hs:1.1823215567939547
##i:1.0
##ia:1.0
##ial:1.1823215567939547
##ian:1.0
##ib:1.1823215567939547
##ible:1.4054651081081644
##ic:1.0
##ica:1.0
##ice:1.0
##ics:1.1823215567939547
##id:1.1823215567939547
##ida:1.4054651081081644
##idal:1.4054651081081644
##ide:1.1823215567939547
##ie:1.0
##ien:1.0
##ier:1.4054651081081644
##ies:1.0
##iff:1.6931471805599454
##ify:1.4054651081081644
##iga:1.4054651081081644
##igen:2.0986122886681096
##igraphy:1.0
##ii:2.0986122886681096
##il:1.0
##ili:1.1823215567939547
##iling:1.4054651081081644
##ilis:1.6931471805599454
##ill:1.1823215567939547
##ils:1.4054651081081644
##im:1.1823215567939547
##imi:1.1823215567939547
##in:1.0
##ina:1.0
##inc:1.4054651081081644
##ind:1.1823215567939547
##ine:1.0
##iner:1.0
##ing:1.0
##ingen:1.6931471805599454
##ini:1.0
##ino:1.6931471805599454
##ins:1.1823215567939547
##int:1.1823215567939547
##io:1.4054651081081644
##iology:1.6931471805599454
##ion:1.1823215567939547
##ious:1.1823215567939547
##ip:1.0
##ique:1.1823215567939547
##ir:1.0
##ira:1.1823215567939547
##ire:1.4054651081081644
##is:1.0
##isan:1.0
##ise:1.4054651081081644
##isha:1.1823215567939547
##ism:1.0
##ist:1.1823215567939547
##it:1.0
##ite:1.0
##ites:1.4054651081081644
##ith:2.0986122886681096
##iti:1.1823215567939547
##ity:1.0
##ium:1.1823215567939547
##ivate:1.1823215567939547
##ive:1.0
##iving:1.6931471805599454
##ivity:1.4054651081081644
##ix:2.0986122886681096
##ization:1.0
##ize:1.0
##ized:1.0
##izing:1.0
##j:1.1823215567939547
##ja:1.4054651081081644
##jar:2.0986122886681096
##je:2.0986122886681096
##jo:1.6931471805599454
##ju:1.1823215567939547
##k:1.0
##ka:1.4054651081081644
##ke:1.0
##keeping:1.1823215567939547
##ki:1.1823215567939547
##kill:1.4054651081081644
##king:1.0
##kle:1.4054651081081644
##kor:2.0986122886681096
##kra:1.1823215567939547
##ks:1.4054651081081644
##kt:1.4054651081081644
##l:1.0
##la:1.4054651081081644
##lan:1.0
##land:1.4054651081081644
##lands:1.6931471805599454
##lash:1.6931471805599454
##lates:1.4054651081081644
##law:1.4054651081081644
##le:1.0
##lea:1.0
##led:1.0
##len:1.4054651081081644
##les:1.1823215567939547
##less:1.1823215567939547
##let:1.1823215567939547
##lf:1.6931471805599454
##li:1.0
##lian:1.4054651081081644
##life:1.1823215567939547
##light:1.4054651081081644
##lim:1.4054651081081644
##line:1.0
##ling:1.1823215567939547
##lining:1.0
##lip:1.6931471805599454
##list:1.1823215567939547
##listic:1.1823215567939547
##lit:1.4054651081081644
##lita:1.6931471805599454
##lla:1.1823215567939547
##lli:2.0986122886681096
##lly:1.4054651081081644
##lo:1.0
##log:1.1823215567939547
##logist:1.6931471805599454
##logy:1.1823215567939547
##lom:2.0986122886681096
##long:1.6931471805599454
##lor:1.1823215567939547
##lov:1.6931471805599454
##ls:1.0
##lts:2.0986122886681096
##lu:1.0
##lus:1.1823215567939547
##ly:1.0
##m:1.0
##ma:1.1823215567939547
##made:1.1823215567939547
##making:1.1823215567939547
##man:1.0
##mana:1.6931471805599454
##mas:1.4054651081081644
##mat:1.1823215567939547
##mb:1.0
##mba:1.1823215567939547
##me:1.0
##med:1.4054651081081644
##mel:1.6931471805599454
##ment:1.0
##mer:1.1823215567939547
##mers:1.4054651081081644
##mes:1.4054651081081644
##met:1.0
##metric:1.4054651081081644
##mi:1.0
##mic:1.1823215567939547
##min:1.0
##ming:1.0
##mite:1.4054651081081644
##mmer:1.1823215567939547
##mo:1.0
##mont:1.4054651081081644
##more:1.4054651081081644
##mp:1.4054651081081644
##mt:1.1823215567939547
##mun:1.1823215567939547
##mut:1.6931471805599454
##n:1.0
##na:1.0
##name:1.6931471805599454
##nat:1.4054651081081644
##nation:1.4054651081081644
##nc:1.0
##nce:1.4054651081081644
##nch:1.4054651081081644
##nco:1.1823215567939547
##nction:1.6931471805599454
##ncy:1.6931471805599454
##nd:1.1823215567939547
##ndo:1.4054651081081644
##ne:1.1823215567939547
##ner:1.1823215567939547
##ners:1.0
##nesia:1.6931471805599454
##ness:1.0
##ng:1.0
##nge:1.4054651081081644
##nger:1.0
##ni:1.1823215567939547
##nia:1.1823215567939547
##night:1.1823215567939547
##ning:1.0
##nk:1.1823215567939547
##no:1.1823215567939547
##nology:2.0986122886681096
##ns:1.0
##nt:1.0
##ntial:2.0986122886681096
##ny:1.6931471805599454
##o:1.0
##oc:1.0
##oche:1.1823215567939547
##ock:1.4054651081081644
##od:1.1823215567939547
##ode:2.0986122886681096
##odle:1.6931471805599454
##odon:1.6931471805599454
##oe:1.6931471805599454
##of:1.0
##off:1.0
##og:1.1823215567939547
##ogist:2.0986122886681096
##ography:1.6931471805599454
##oia:2.0986122886681096
##ok:1.1823215567939547
##oke:1.1823215567939547
##ol:1.1823215567939547
##old:1.6931471805599454
##ologist:1.6931471805599454
##ology:1.1823215567939547
##om:1.1823215567939547
##oma:1.4054651081081644
##ome:1.1823215567939547
##omics:1.6931471805599454
##on:1.0
##ong:1.4054651081081644
##oni:1.1823215567939547
##onne:1.4054651081081644
##ono:1.4054651081081644
##ons:1.0
##ont:1.6931471805599454
##oo:1.1823215567939547
##ook:1.6931471805599454
##ool:1.1823215567939547
##oot:1.1823215567939547
##op:1.1823215567939547
##oped:1.6931471805599454
##oper:2.0986122886681096
##ops:1.6931471805599454
##or:1.0
##ora:1.1823215567939547
##ord:1.4054651081081644
##ore:1.1823215567939547
##ores:1.6931471805599454
##org:1.4054651081081644
##ori:1.1823215567939547
##oria:1.6931471805599454
##oris:1.6931471805599454
##ork:1.0
##ort:1.1823215567939547
##os:1.1823215567939547
##osa:2.0986122886681096
##ost:1.0
##ot:1.0
##our:1.0
##ous:1.1823215567939547
##out:1.0
##ova:1.4054651081081644
##ove:2.0986122886681096
##over:1.0
##ow:1.0
##owing:1.4054651081081644
##own:1.1823215567939547
##ox:1.1823215567939547
##p:1.0
##pa:1.0
##pac:1.1823215567939547
##pace:1.1823215567939547
##pack:1.4054651081081644
##pad:1.4054651081081644
##par:1.0
##park:1.6931471805599454
##pe:1.0
##ped:1.4054651081081644
##per:1.1823215567939547
##person:1.1823215567939547
##personal:1.6931471805599454
##ph:1.1823215567939547
##physics:2.0986122886681096
##pi:1.4054651081081644
##ping:1.0
##pl:1.0
##play:1.1823215567939547
##po:1.0
##pol:1.1823215567939547
##pop:1.4054651081081644
##por:1.1823215567939547
##ports:1.1823215567939547
##pp:1.4054651081081644
##pr:1.1823215567939547
##pres:1.6931471805599454
##pro:1.1823215567939547
##pt:1.1823215567939547
##pu:1.1823215567939547
##py:1.6931471805599454
##q:1.0
##qa:1.1823215567939547
##qu:2.0986122886681096
##qua:1.4054651081081644
##que:1.4054651081081644
##quet:1.6931471805599454
##quil:1.4054651081081644
##quin:1.1823215567939547
##r:1.0
##ra:1.0
##rable:1.6931471805599454
##rac:1.4054651081081644
##rade:1.6931471805599454
##raf:1.4054651081081644
##rai:1.4054651081081644
##rak:1.6931471805599454
##ral:1.1823215567939547
##ran:1.6931471805599454
##rang:1.6931471805599454
##rat:1.4054651081081644
##rate:1.6931471805599454
##ration:1.0
##ray:1.6931471805599454
##rd:1.1823215567939547
##re:1.0
##rea:1.4054651081081644
##red:1.1823215567939547
##ree:1.1823215567939547
##resh:1.0
##ri:1.0
##ria:1.1823215567939547
##ric:1.1823215567939547
##ride:1.1823215567939547
##rie:1.6931471805599454
##ries:1.0
##rift:1.6931471805599454
##rim:2.0986122886681096
##rin:1.4054651081081644
##rini:1.4054651081081644
##rino:2.0986122886681096
##rio:1.6931471805599454
##rity:1.6931471805599454
##rium:1.4054651081081644
##rm:1.4054651081081644
##rn:1.4054651081081644
##ro:1.0
##ron:1.1823215567939547
##room:1.4054651081081644
##rop:1.6931471805599454
##rou:1.1823215567939547
##rous:1.4054651081081644
##rov:1.1823215567939547
##rs:1.0
##rt:1.0
##rte:1.6931471805599454
##rti:1.1823215567939547
##ru:1.1823215567939547
##rum:1.6931471805599454
##run:1.1823215567939547
##ry:1.0
##s:1.0
##sa:1.1823215567939547
##sai:1.4054651081081644
##sal:1.1823215567939547
##san:1.6931471805599454
##sat:2.0986122886681096
##sb:1.6931471805599454
##sc:1.0
##sca:1.1823215567939547
##sch:1.1823215567939547
##script:2.0986122886681096
##se:1.0
##sea:1.0
##sen:1.4054651081081644
##ser:1.4054651081081644
##sh:1.1823215567939547
##shi:1.1823215567939547
##ship:1.0
##sho:1.1823215567939547
##si:1.0
##sia:1.6931471805599454
##sic:1.6931471805599454
##side:1.1823215567939547
##sit:1.1823215567939547
##sm:1.4054651081081644
##sp:1.0
##ss:1.1823215567939547
##st:1.0
##sta:1.0
##star:1.1823215567939547
##ster:1.4054651081081644
##stic:1.1823215567939547
##su:1.1823215567939547
##sum:1.4054651081081644
##sw:1.4054651081081644
##sy:1.1823215567939547
##t:1.0
##ta:1.1823215567939547
##table:1.0
##taking:1.6931471805599454
##tal:1.1823215567939547
##tale:1.4054651081081644
##tance:1.0
##tar:1.0
##tas:1.1823215567939547
##te:1.0
##teacher:1.1823215567939547
##tech:1.4054651081081644
##ter:1.0
##ters:1.1823215567939547
##th:1.0
##the:1.1823215567939547
##therapy:1.1823215567939547
##tic:1.4054651081081644
##tics:1.6931471805599454
##time:1.0
##ting:1.0
##tion:1.0
##tist:1.4054651081081644
##tive:1.4054651081081644
##tment:1.1823215567939547
##to:1.0
##ton:1.1823215567939547
##tone:1.0
##top:1.0
##tor:1.0
##torm:1.4054651081081644
##tors:1.4054651081081644
##tory:1.4054651081081644
##tos:1.1823215567939547
##tour:1.6931471805599454
##town:1.4054651081081644
##tra:1.0
##tri:1.1823215567939547
##trip:1.1823215567939547
##tro:1.1823215567939547
##try:1.4054651081081644
##ts:1.0
##tte:1.1823215567939547
##tter:1.4054651081081644
##ttering:2.0986122886681096
##ture:1.1823215567939547
##tv:1.4054651081081644
##ty:1.0
##tz:1.4054651081081644
##u:1.0
##ua:1.4054651081081644
##ual:1.1823215567939547
##uba:1.4054651081081644
##uce:1.6931471805599454
##ucher:1.6931471805599454
##ue:1.0
##uf:1.1823215567939547
##ug:1.4054651081081644
##ui:1.4054651081081644
##uk:1.4054651081081644
##uke:1.6931471805599454
##ul:1.0
##ule:1.0
##uled:1.1823215567939547
##ulent:1.4054651081081644
##um:1.0
##un:1.0
##una:1.6931471805599454
##und:1.1823215567939547
##unt:1.1823215567939547
##up:1.0
##ur:1.0
##ura:1.1823215567939547
##ure:1.1823215567939547
##uri:1.1823215567939547
##uring:1.4054651081081644
##uro:1.4054651081081644
##urr:1.6931471805599454
##us:1.0
##ut:1.1823215567939547
##ute:1.0
##uven:1.1823215567939547
##ux:1.4054651081081644
##v:1.0
##va:1.0
##vac:1.6931471805599454
##vance:1.6931471805599454
##ve:1.0
##ven:1.1823215567939547
##ver:1.1823215567939547
##vers:1.4054651081081644
##very:1.1823215567939547
##ves:1.6931471805599454
##vi:1.1823215567939547
##via:1.1823215567939547
##vid:1.4054651081081644
##vier:1.6931471805599454
##view:1.1823215567939547
##ville:1.6931471805599454
##ving:1.0
##vis:1.4054651081081644
##vo:1.1823215567939547
##vr:1.0
##w:1.1823215567939547
##wal:1.1823215567939547
##war:1.4054651081081644
##ware:1.6931471805599454
##was:1.6931471805599454
##wash:2.0986122886681096
##watch:1.0
##water:1.4054651081081644
##way:1.1823215567939547
##wed:1.4054651081081644
##week:1.0
##weight:2.0986122886681096
##wer:1.4054651081081644
##wide:1.4054651081081644
##wind:1.1823215567939547
##wing:1.6931471805599454
##wn:1.4054651081081644
##wood:1.1823215567939547
##work:1.0
##working:1.1823215567939547
##world:1.4054651081081644
##wr:1.1823215567939547
##writing:1.4054651081081644
##x:1.1823215567939547
##y:1.0
##ya:1.4054651081081644
##yc:1.6931471805599454
##ye:1.4054651081081644
##year:1.6931471805599454
##yl:1.1823215567939547
##yme:1.6931471805599454
##yo:1.0
##ys:1.0
##yu:1.4054651081081644
##z:1.0
##za:1.0
##zation:1.4054651081081644
##ze:1.1823215567939547
##zer:1.1823215567939547
##zers:1.6931471805599454
##zing:1.0
##zu:2.0986122886681096
##zz:1.4054651081081644
##가:1.0
##가드:1.6931471805599454
##가방:1.1823215567939547
##가스:1.1823215567939547
##가와:1.1823215567939547
##가요:1.4054651081081644
##가을:1.0
##가정:1.0
##가족:1.1823215567939547
##가지:1.0
##가치:1.0
##각:1.0
##간:1.0
##간다:1.4054651081081644
##갈:1.0
##갈비:1.4054651081081644
##감:1.0
##감독:1.4054651081081644
##감사:1.0
##갑:1.1823215567939547
##갓:1.1823215567939547
##강:1.0
##같:1.1823215567939547
##같이:1.4054651081081644
##개:1.0
##개발:1.0
##객:1.0
##갤:1.1823215567939547
##갯:1.4054651081081644
##갱:1.1823215567939547
##거:1.0
##거래:1.0
##거리:1.1823215567939547
##거운:1.0
##건:1.0
##걷:1.1823215567939547
##걸:1.6931471805599454
##걸리:2.0986122886681096
##걸이:1.6931471805599454
##검:1.0
##검사:1.4054651081081644
##게:1.0
##게이:1.4054651081081644
##게이션:1.6931471805599454
##게임:1.0
##겜:2.0986122886681096
##겨:1.1823215567939547
##겨운:2.0986122886681096
##겨울:1.0
##격:1.0
##견:1.0
##결:1.0
##결승:1.6931471805599454
##결제:1.4054651081081644
##겸:1.6931471805599454
##겹살:2.0986122886681096
##경:1.0
##경기:1.0
##경제:1.1823215567939547
##계:1.0
##계선:2.0986122886681096
##계약:1.1823215567939547
##고:1.0
##고기:1.0
##고리:1.1823215567939547
##고사:1.4054651081081644
##고속:1.4054651081081644
##고스:1.4054651081081644
##고시:1.1823215567939547
##고양이:1.4054651081081644
##고추:1.4054651081081644
##곡:1.1823215567939547
##곤:1.4054651081081644
##골:1.0
##골목:1.6931471805599454
##곰:1.1823215567939547
##곱:1.6931471805599454
##곳:1.1823215567939547
##공:1.0
##공간:1.0
##공사:1.1823215567939547
##공산:2.0986122886681096
##공원:1.1823215567939547
##공항:1.4054651081081644
##공화국:1.6931471805599454
##곶:1.6931471805599454
##과:1.0
##과이:1.0
##과학:1.0
##곽:1.4054651081081644
##관:1.0
##관계:1.0
##관광:1.1823215567939547
##관리:1.0
##광:1.0
##광장:1.4054651081081644
##교:1.0
##교사:1.6931471805599454
##교육:1.0
##교통:1.4054651081081644
##교회:1.6931471805599454
##구:1.0
##구역:1.1823215567939547
##구이:1.1823215567939547
##구장:1.4054651081081644
##구정:1.4054651081081644
##구조:1.1823215567939547
##국:1.0
##국사:1.1823215567939547
##국수:1.4054651081081644
##군:1.1823215567939547
##굴:1.1823215567939547
##굽:1.6931471805599454
##굿:1.4054651081081644
##궁:1.4054651081081644
##권:1.0
##귀:1.0
##규:1.0
##규모:1.6931471805599454
##규어:1.4054651081081644
##균:1.0
##그:1.0
##그라:1.4054651081081644
##그라드:2.0986122886681096
##그래:1.1823215567939547
##그램:1.0
##그레:1.1823215567939547
##그레이드:1.4054651081081644
##그룹:1.0
##그리:1.0
##그림:1.1823215567939547
##극:1.0
##극장:1.6931471805599454
##근:1.0
##근무:1.4054651081081644
##글:1.0
##글라:1.4054651081081644
##금:1.0
##금융:1.6931471805599454
##금자리:2.0986122886681096
##급:1.0
##긍:1.1823215567939547
##기:1.0
##기계:1.1823215567939547
##기구:1.1823215567939547
##기념:1.0
##기능:1.4054651081081644
##기록:1.0
##기부:1.0
##기사:1.1823215567939547
##기수:1.0
##기술:1.0
##기업:1.4054651081081644
##기획:1.0
##긴:1.0
##길:1.0
##김:1.0
##김치:1.1823215567939547
##깅:1.1823215567939547
##깊:1.4054651081081644
##까:1.0
##깎:1.6931471805599454
##깜:1.6931471805599454
##깨:1.1823215567939547
##깨비:1.4054651081081644
##께:1.0
##껫:2.0986122886681096
##꼬:1.4054651081081644
##꼭지:2.0986122886681096
##꽂:1.1823215567939547
##꽃:1.1823215567939547
##꾸:1.1823215567939547
##꾸미:1.6931471805599454
##꿈:1.0
##끝:1.0
##끼:1.0
##끼리:1.1823215567939547
##끽:1.4054651081081644
##나:1.0
##나기:1.1823215567939547
##나다:1.6931471805599454
##나들:1.1823215567939547
##나라:1.1823215567939547
##나리:1.6931471805599454
##나무:1.1823215567939547
##나비:1.4054651081081644
##나와:1.6931471805599454
##나이:1.1823215567939547
##낙:1.4054651081081644
##낚:1.1823215567939547
##난:1.0
##날:1.0
##날레:1.4054651081081644
##날리:1.6931471805599454
##남:1.0
##납:1.0
##낭:1.0
##내:1.0
##내기:1.4054651081081644
##내셔널:1.6931471805599454
##낵:1.4054651081081644
##냅:1.6931471805599454
##냉:1.1823215567939547
##냉면:1.6931471805599454
##너:1.0
##너스:1.4054651081081644
##너지:1.4054651081081644
##넉:1.4054651081081644
##널:1.0
##넘:1.4054651081081644
##넘기:1.6931471805599454
##네:1.1823215567939547
##네마:1.4054651081081644
##네스:1.6931471805599454
##네이:1.4054651081081644
##네트:1.0
##넷:1.0
##녀:1.1823215567939547
##녁:1.0
##년:1.0
##년기:1.1823215567939547
##념:1.0
##녕:2.0986122886681096
##녘:1.6931471805599454
##노:1.0
##노동:1.1823215567939547
##노미:1.6931471805599454
##노스:1.4054651081081644
##녹:1.1823215567939547
##논:1.1823215567939547
##놀:1.0
##놀이:1.0
##농:1.0
##뇨:2.0986122886681096
##누:1.0
##누리:1.6931471805599454
##눈:1.1823215567939547
##눈썹:2.0986122886681096
##눔:1.0
##뉴:1.0
##뉴스:1.0
##뉴얼:1.1823215567939547
##느:1.4054651081081644
##는:1.0
##늘:1.1823215567939547
##능:1.0
##능력:1.4054651081081644
##늪:1.6931471805599454
##니:1.0
##니스:1.0
##니스탄:2.0986122886681096
##니아:1.4054651081081644
##니카:1.6931471805599454
##닉:1.0
##닉스:1.1823215567939547
##님:1.0
##닝:1.1823215567939547
##다:1.0
##다리:1.0
##다발:1.4054651081081644
##다운:1.0
##다이:1.0
##닥:1.1823215567939547
##닦:2.0986122886681096
##단:1.0
##단지:1.0
##단체:1.0
##달:1.0
##달리:1.4054651081081644
##닭:1.1823215567939547
##담:1.0
##담회:1.4054651081081644
##답:1.0
##닷:1.1823215567939547
##당:1.0
##대:1.0
##대교:1.1823215567939547
##대기:1.1823215567939547
##대문:1.4054651081081644
##대왕:2.0986122886681096
##대장:1.1823215567939547
##대표:1.0
##댁:1.4054651081081644
##댄:1.0
##댐:2.0986122886681096
##댕:2.0986122886681096
##더:1.0
##덕:1.1823215567939547
##던:1.1823215567939547
##덜:1.4054651081081644
##덤:1.4054651081081644
##데:1.0
##데미:1.1823215567939547
##데스:1.4054651081081644
##데이:1.0
##데이트:1.0
##덴:1.6931471805599454
##델:1.0
##도:1.0
##도로:1.1823215567939547
##도르:1.6931471805599454
##도사:1.6931471805599454
##도어:1.4054651081081644
##도전:1.0
##독:1.0
##돈:1.4054651081081644
##돋:1.0
##돌:1.0
##동:1.0
##동강:1.1823215567939547
##동물:1.0
##동산:1.0
##동생:1.6931471805599454
##동아:1.1823215567939547
##돼지:1.4054651081081644
##되:1.4054651081081644
##된:1.0
##두:1.1823215567939547
##두부:1.4054651081081644
##둔:1.4054651081081644
##둘:1.6931471805599454
##뒤:1.4054651081081644
##뒷:1.4054651081081644
##듀:1.6931471805599454
##드:1.0
##드라:1.0
##드라마:1.4054651081081644
##드레:1.1823215567939547
##드로:1.4054651081081644
##드리:1.0
##득:1.0
##든:1.1823215567939547
##듣:1.1823215567939547
##들:1.0
##들리:1.4054651081081644
##들의:1.4054651081081644
##들이:1.6931471805599454
##등:1.0
##디:1.0
##디스:1.0
##디어:1.0
##디오:1.0
##딘:1.4054651081081644
##딜:1.6931471805599454
##딧:1.6931471805599454
##딩:1.0
##따:1.0
##딸:1.4054651081081644
##떠:1.4054651081081644
##떡:1.6931471805599454
##떼:1.4054651081081644
##뜨:1.6931471805599454
##뜻:1.4054651081081644
##라:1.0
##라도:1.4054651081081644
##라리:1.4054651081081644
##라미:1.4054651081081644
##라스:1.0
##라이:1.0
##라이언스:2.0986122886681096
##라이트:1.1823215567939547
##라인:1.0
##락:1.0
##란:1.1823215567939547
##란드:2.0986122886681096
##란트:1.1823215567939547
##람:1.0
##랍:1.4054651081081644
##랑:1.1823215567939547
##랑스:1.1823215567939547
##랑카:1.6931471805599454
##래:1.0
##랙:1.0
##랜:1.0
##랜드:1.0
##램:1.1823215567939547
##랩:1.0
##랫:1.4054651081081644
##랭:1.4054651081081644
##랭이:2.0986122886681096
##랭크:1.6931471805599454
##략:1.0
##량:1.0
##러:1.0
##러리:1.1823215567939547
##러스:1.1823215567939547
##러진:2.0986122886681096
##럭:1.1823215567939547
##런:1.0
##런치:1.4054651081081644
##럴:1.1823215567939547
##럼:1.0
##럽:1.4054651081081644
##렁:1.4054651081081644
##레:1.0
##레드:1.0
##레미:1.6931471805599454
##레스:1.0
##레스트:1.4054651081081644
##레이:1.0
##레이드:1.4054651081081644
##레이션:1.1823215567939547
##레이크:1.0
##레인:1.4054651081081644
##레인지:1.4054651081081644
##레일:1.1823215567939547
##렉:1.1823215567939547
##렉션:1.4054651081081644
##렉스:1.6931471805599454
##렌:1.0
##렐:1.6931471805599454
##렛:1.1823215567939547
##려:1.0
##력:1.0
##련:1.0
##렴:1.0
##령:1.0
##례:1.1823215567939547
##로:1.0
##로그:1.1823215567939547
##로드:1.0
##로스:1.1823215567939547
##로운:1.0
##로지:1.4054651081081644
##록:1.0
##론:1.0
##롤:1.0
##롯:1.4054651081081644
##롱:1.0
##뢰:1.6931471805599454
##료:1.0
##룡:1.4054651081081644
##루:1.0
##루션:1.4054651081081644
##루스:1.4054651081081644
##룩:1.1823215567939547
##룰:1.6931471805599454
##룸:1.0
##류:1.0
##륙:1.6931471805599454
##륜:1.4054651081081644
##률:1.4054651081081644
##르:1.0
##르기:1.0
##르드:1.4054651081081644
##륵:1.6931471805599454
##른:1.0
##를:1.0
##름:1.0
##릉:1.1823215567939547
##리:1.0
##리그:1.4054651081081644
##리사:1.1823215567939547
##리스:1.0
##리스트:1.0
##리시:1.1823215567939547
##리아:1.1823215567939547
##리안:1.6931471805599454
##리어:1.4054651081081644
##리에:1.4054651081081644
##리즘:1.1823215567939547
##리트:1.0
##리티:1.4054651081081644
##리포:1.0
##리학:1.6931471805599454
##리히:1.6931471805599454
##릭:1.0
##린:1.0
##릴:1.0
##림:1.0
##림동:2.0986122886681096
##림픽:1.4054651081081644
##립:1.0
##릿:1.0
##링:1.0
##링크:1.0
##링턴:1.6931471805599454
##마:1.0
##마당:1.6931471805599454
##마리:1.4054651081081644
##마스:1.0
##마을:1.1823215567939547
##마음:1.1823215567939547
##마켓:1.0
##마크:1.1823215567939547
##마트:1.0
##막:1.0
##만:1.0
##만두:1.4054651081081644
##말:1.0
##말라:1.6931471805599454
##맛:1.1823215567939547
##망:1.0
##맞:1.1823215567939547
##맞이:1.0
##맞춤:1.0
##맡:1.6931471805599454
##매:1.0
##매기:1.4054651081081644
##매도:2.0986122886681096
##매장:1.0
##맥:1.1823215567939547
##맥스:1.4054651081081644
##맥주:1.1823215567939547
##맨:1.1823215567939547
##맹:1.1823215567939547
##머:1.0
##머니:1.1823215567939547
##머리:1.4054651081081644
##머스:1.4054651081081644
##먹:1.1823215567939547
##먼트:1.0
##멀:1.0
##멋:1.4054651081081644
##멍:1.4054651081081644
##메:1.0
##메이:1.1823215567939547
##메이드:1.4054651081081644
##메이션:1.4054651081081644
##멘:1.0
##멘터리:1.1823215567939547
##멜:1.4054651081081644
##멤:1.0
##며:1.1823215567939547
##면:1.0
##명:1.0
##모:1.0
##모니:1.1823215567939547
##모스:1.1823215567939547
##목:1.0
##몬:1.4054651081081644
##몰:1.0
##몸:1.4054651081081644
##몹:1.6931471805599454
##못:1.1823215567939547
##묘:1.4054651081081644
##무:1.0
##무리:1.1823215567939547
##무소:1.4054651081081644
##무실:1.4054651081081644
##무역:1.4054651081081644
##무원:2.0986122886681096
##무진:1.4054651081081644
##묵:1.6931471805599454
##문:1.0
##문서:1.0
##문제:1.0
##문화:1.0
##문화재:1.4054651081081644
##묻:1.6931471805599454
##물:1.0
##뮤:1.1823215567939547
##뮤니:1.0
##뮬:1.1823215567939547
##믈:1.4054651081081644
##미:1.0
##미디어:1.1823215567939547
##미사:2.0986122886681096
##미술:1.0
##미스:1.6931471805599454
##미아:1.4054651081081644
##미지:1.6931471805599454
##믹:1.1823215567939547
##민:1.0
##민국:1.6931471805599454
##민주:1.4054651081081644
##민턴:1.4054651081081644
##밀:1.0
##밀리:1.4054651081081644
##밍:1.0
##및:1.0
##밑:1.1823215567939547
##바:1.0
##바구니:1.6931471805599454
##바나:1.4054651081081644
##바다:1.1823215567939547
##바람:1.1823215567939547
##바르:1.6931471805599454
##바바:1.6931471805599454
##바스:1.4054651081081644
##바위:1.6931471805599454
##바이:1.0
##바이트:2.0986122886681096
##박:1.0
##박스:1.4054651081081644
##반:1.0
##반기:1.1823215567939547
##반도:1.6931471805599454
##받:1.0
##발:1.0
##발전:1.0
##밤:1.0
##밥:1.1823215567939547
##방:1.0
##방송:1.4054651081081644
##방향:1.4054651081081644
##밭:1.1823215567939547
##배:1.0
##배우:1.0
##백:1.0
##백산:1.6931471805599454
##백화점:1.6931471805599454
##밴:1.4054651081081644
##밴드:1.4054651081081644
##밸:1.1823215567939547
##밸리:1.4054651081081644
##뱅:1.6931471805599454
##버:1.0
##버거:1.6931471805599454
##버그:1.4054651081081644
##버님:2.0986122886681096
##버리:1.4054651081081644
##버스:1.1823215567939547
##벅:1.0
##번:1.0
##벌:1.0
##범:1.0
##법:1.0
##벚:1.4054651081081644
##베:1.0
##베르:1.6931471805599454
##베스:1.0
##베이:1.1823215567939547
##베이스:1.4054651081081644
##벡:1.1823215567939547
##벤:1.4054651081081644
##벤처:1.0
##벤트:1.0
##벨:1.0
##벼:1.4054651081081644
##벽:1.0
##변:1.0
##별:1.0
##병:1.0
##병원:1.1823215567939547
##보:1.0
##보기:1.0
##보내:1.1823215567939547
##보드:1.0
##보리:1.4054651081081644
##보이:1.1823215567939547
##보증:1.4054651081081644
##보험:1.1823215567939547
##보호:1.0
##복:1.0
##복지:1.4054651081081644
##볶음:1.6931471805599454
##볶이:1.6931471805599454
##본:1.0
##볼:1.1823215567939547
##봄:1.0
##봇:1.4054651081081644
##봉:1.0
##봉사:1.0
##부:1.0
##부모:1.0
##부산:1.1823215567939547
##부인:1.1823215567939547
##북:1.0
##분:1.0
##불:1.0
##불교:1.6931471805599454
##불이:1.6931471805599454
##뷔:1.4054651081081644
##뷰:1.0
##브:1.0
##브라:1.1823215567939547
##브로:1.4054651081081644
##브르:1.6931471805599454
##브리:1.1823215567939547
##브스:1.1823215567939547
##븐:1.0
##블:1.0
##블로:1.1823215567939547
##비:1.0
##비스:1.0
##비아:1.6931471805599454
##비안:1.0
##비용:1.0
##비전:1.4054651081081644
##비치:1.4054651081081644
##빅:1.0
##빈:1.0
##빌:1.0
##빔:1.4054651081081644
##빗:1.4054651081081644
##빙:1.0
##빛:1.4054651081081644
##빠:1.0
##빨:1.4054651081081644
##빵:1.0
##빼:1.4054651081081644
##쁨:1.6931471805599454
##사:1.0
##사고:1.0
##사관:1.4054651081081644
##사기:1.1823215567939547
##사람:1.1823215567939547
##사랑:1.4054651081081644
##사리:1.1823215567939547
##사상:1.4054651081081644
##사업:1.6931471805599454
##사이:1.0
##사장:1.1823215567939547
##사전:1.0
##사진:1.0
##사항:1.0
##사회:1.1823215567939547
##삭:1.1823215567939547
##산:1.0
##산동:1.6931471805599454
##산물:1.1823215567939547
##산성:1.4054651081081644
##산업:1.4054651081081644
##살:1.0
##삶:1.0
##삼:1.1823215567939547
##삿:1.1823215567939547
##상:1.0
##상스:1.0
##상의:1.1823215567939547
##새:1.0
##색:1.0
##샌:1.4054651081081644
##샘:1.1823215567939547
##생:1.0
##생명:1.4054651081081644
##생활:1.0
##샤:1.1823215567939547
##샤브:2.0986122886681096
##샵:1.0
##샷:1.0
##서:1.0
##서관:1.0
##서도:1.1823215567939547
##서리:1.4054651081081644
##서비스:1.0
##서스:1.4054651081081644
##서울:1.1823215567939547
##석:1.0
##선:1.0
##설:1.0
##섬:1.1823215567939547
##섭:1.0
##성:1.0
##성대:1.1823215567939547
##성장:1.0
##세:1.0
##세스:1.4054651081081644
##세요:1.1823215567939547
##세우:1.0
##세이:1.4054651081081644
##센:1.0
##센터:1.0
##센트:1.4054651081081644
##셀:1.0
##셉:1.4054651081081644
##셉션:1.6931471805599454
##셋:1.0
##셔:1.1823215567939547
##셔널:1.4054651081081644
##셔리:1.4054651081081644
##션:1.0
##셜:1.0
##셰:1.6931471805599454
##셸:1.6931471805599454
##소:1.0
##소년:1.1823215567939547
##소리:1.0
##소스:1.1823215567939547
##소통:1.0
##속:1.0
##손:1.0
##솔:1.0
##송:1.0
##솥:1.4054651081081644
##쇄:1.0
##쇼:1.0
##숍:1.1823215567939547
##수:1.0
##수리:1.4054651081081644
##수사:1.6931471805599454
##수수:1.0
##수술:1.6931471805599454
##수정:1.0
##수지:1.4054651081081644
##숙:1.0
##순:1.0
##순간:1.1823215567939547
##순위:1.4054651081081644
##술:1.0
##숨:1.4054651081081644
##숲:1.4054651081081644
##쉐:1.4054651081081644
##쉬:1.0
##슈:1.0
##슈타인:1.4054651081081644
##슐:1.4054651081081644
##스:1.0
##스러운:1.1823215567939547
##스카:1.1823215567939547
##스케:1.0
##스코:1.1823215567939547
##스크:1.1823215567939547
##스크림:1.6931471805599454
##스키:1.1823215567939547
##스타:1.0
##스타일:1.1823215567939547
##스탄:2.0986122886681096
##스터:1.0
##스테:1.1823215567939547
##스토:1.0
##스토리:1.1823215567939547
##스톤:1.4054651081081644
##스트:1.0
##스트라:1.4054651081081644
##스티:1.4054651081081644
##스티벌:1.0
##슨:1.0
##슬:1.0
##슬라:1.1823215567939547
##슬로:1.1823215567939547
##습:1.0
##습관:1.1823215567939547
##승:1.1823215567939547
##시:1.0
##시간:1.0
##시계:1.4054651081081644
##시네마:2.0986122886681096
##시대:1.1823215567939547
##시브:1.1823215567939547
##시설:1.1823215567939547
##시스:1.4054651081081644
##시아:1.1823215567939547
##시안:1.1823215567939547
##시원:1.1823215567939547
##시장:1.0
##시티:1.1823215567939547
##시피:1.6931471805599454
##시험:1.1823215567939547
##식:1.0
##식물:1.4054651081081644
##신:1.0
##신기:1.1823215567939547
##실:1.0
##실험:1.1823215567939547
##심:1.0
##십:1.0
##싱:1.0
##싸:1.4054651081081644
##싸움:1.6931471805599454
##쌤:1.4054651081081644
##썬:1.1823215567939547
##썰:1.4054651081081644
##썸:1.4054651081081644
##쓰:1.6931471805599454
##쓰기:1.4054651081081644
##씨:1.1823215567939547
##아:1.0
##아가:1.1823215567939547
##아르:1.4054651081081644
##아리:1.4054651081081644
##아버지:1.6931471805599454
##아보:1.4054651081081644
##아시아:1.4054651081081644
##아웃:1.0
##아이:1.0
##아트:1.0
##아프리카:1.4054651081081644
##악:1.0
##악산:1.4054651081081644
##안:1.0
##안전:1.0
##않:1.1823215567939547
##알:1.0
##알라:1.4054651081081644
##암:1.0
##암동:1.4054651081081644
##압:1.0
##앙:1.4054651081081644
##앞:1.0
##애:1.0
##액:1.0
##앤:1.1823215567939547
##앨:1.0
##앱:1.1823215567939547
##야:1.0
##약:1.0
##얏:1.6931471805599454
##양:1.0
##어:1.0
##어로:1.1823215567939547
##어리:1.1823215567939547
##어링:1.6931471805599454
##어머니:1.4054651081081644
##어스:1.4054651081081644
##어티:2.0986122886681096
##억:1.0
##언:1.0
##언스:1.1823215567939547
##얼:1.0
##엄:1.1823215567939547
##업:1.0
##업자:1.6931471805599454
##업체:1.0
##없:1.0
##없이:1.6931471805599454
##에:1.0
##에스:1.1823215567939547
##에이:1.0
##엑스:1.1823215567939547
##엔:1.0
##엔지니어:2.0986122886681096
##엘:1.1823215567939547
##엠:1.4054651081081644
##여:1.0
##여름:1.0
##여행:1.0
##역:1.0
##연:1.0
##연구:1.1823215567939547
##연대:1.4054651081081644
##연설:1.4054651081081644
##연수:1.1823215567939547
##연합:1.6931471805599454
##열:1.0
##열차:1.6931471805599454
##염:1.1823215567939547
##영:1.0
##영상:1.0
##영수:1.4054651081081644
##영장:1.0
##영화:1.0
##예:1.0
##예산:1.1823215567939547
##예술:1.0
##오:1.0
##오르:1.1823215567939547
##오리:1.4054651081081644
##오카:1.4054651081081644
##오프:1.1823215567939547
##오피스:1.1823215567939547
##옥:1.4054651081081644
##온:1.0
##올:1.0
##올리:1.1823215567939547
##옵:1.6931471805599454
##옷:1.4054651081081644
##와:1.0
##와서:1.6931471805599454
##왁:1.6931471805599454
##완:1.0
##왕:1.0
##왕산:1.6931471805599454
##외:1.0
##외과:2.0986122886681096
##요:1.0
##요금:1.4054651081081644
##요일:1.4054651081081644
##욕:1.0
##욕장:1.4054651081081644
##용:1.0
##용수:1.6931471805599454
##용품:1.4054651081081644
##우:1.0
##우드:1.0
##우리:1.1823215567939547
##우스:1.1823215567939547
##우주:1.1823215567939547
##욱:1.6931471805599454
##운:1.0
##운동:1.0
##운드:1.1823215567939547
##운전:1.4054651081081644
##울:1.0
##움:1.0
##웃:1.1823215567939547
##웅:1.6931471805599454
##워:1.0
##워드:1.1823215567939547
##워즈:2.0986122886681096
##워크:1.0
##원:1.0
##원지:1.1823215567939547
##원회:1.6931471805599454
##월:1.0
##월드:1.4054651081081644
##웜:2.0986122886681096
##웨:1.1823215567939547
##웨어:1.1823215567939547
##웨이:1.4054651081081644
##웰:1.0
##웹:1.0
##위:1.0
##위원회:1.4054651081081644
##위치:1.1823215567939547
##윈:1.0
##윙:1.4054651081081644
##유:1.0
##유럽:1.1823215567939547
##유산:1.1823215567939547
##유진:2.0986122886681096
##육:1.1823215567939547
##윤:1.4054651081081644
##율:1.0
##융합:1.4054651081081644
##으:1.1823215567939547
##으로:1.0
##은:1.0
##을:1.0
##음:1.0
##음료:1.4054651081081644
##읍:1.6931471805599454
##응:1.0
##의:1.0
##의사:1.1823215567939547
##의식:1.6931471805599454
##이:1.0
##이나:1.4054651081081644
##이너:1.1823215567939547
##이도:1.6931471805599454
##이동:1.0
##이드:1.0
##이상:1.4054651081081644
##이스:1.4054651081081644
##이즈:1.1823215567939547
##이크:1.0
##이트:1.0
##이팅:1.6931471805599454
##이행:1.4054651081081644
##익:1.1823215567939547
##익스:1.4054651081081644
##인:1.0
##인드:1.1823215567939547
##인트:1.0
##일:1.0
##일기:1.1823215567939547
##일러:1.4054651081081644
##일리:1.1823215567939547
##일보:1.4054651081081644
##일이:1.4054651081081644
##읽:1.6931471805599454
##읽기:1.4054651081081644
##임:1.0
##임스:1.6931471805599454
##임자:1.6931471805599454
##입:1.0
##잇:1.4054651081081644
##있:1.0
##잉:1.1823215567939547
##잊:1.0
##자:1.0
##자기:1.0
##자동:1.0
##자리:1.0
##자와:1.1823215567939547
##자원:1.1823215567939547
##자유:1.0
##자의:1.6931471805599454
##작:1.0
##잔:1.1823215567939547
##잔치:1.4054651081081644
##잠:1.0
##잡:1.0
##잡이:1.1823215567939547
##장:1.0
##장난:1.6931471805599454
##장성:1.4054651081081644
##장수:1.1823215567939547
##장치:1.6931471805599454
##재:1.0
##재료:1.6931471805599454
##재판:1.6931471805599454
##쟁:1.1823215567939547
##저:1.0
##저가:1.4054651081081644
##저트:1.4054651081081644
##적:1.0
##전:1.0
##전기:1.0
##전도:1.4054651081081644
##전자:1.0
##전환:1.1823215567939547
##절:1.0
##점:1.0
##접:1.1823215567939547
##정:1.0
##정리:1.0
##정보:1.0
##정부:1.4054651081081644
##정식:1.4054651081081644
##정신:1.1823215567939547
##정원:1.1823215567939547
##정책:1.4054651081081644
##제:1.0
##제리:1.6931471805599454
##제품:1.0
##제한:1.4054651081081644
##젝:1.4054651081081644
##젝트:1.0
##젠:1.4054651081081644
##젠테이션:1.6931471805599454
##젤:1.4054651081081644
##져:1.4054651081081644
##조:1.0
##조각:1.4054651081081644
##조건:1.6931471805599454
##조리:1.4054651081081644
##조사:1.1823215567939547
##조치:1.1823215567939547
##족:1.0
##존:1.1823215567939547
##졸:1.0
##종:1.0
##좋:1.0
##좌:1.0
##좌석:1.6931471805599454
##주:1.0
##주의:1.0
##죽:1.4054651081081644
##준:1.0
##줄:1.0
##중:1.0
##중간:1.1823215567939547
##중국:1.1823215567939547
##쥬:1.1823215567939547
##즈:1.0
##즌:1.1823215567939547
##즐:1.0
##즘:1.6931471805599454
##증:1.0
##지:1.0
##지구:1.0
##지기:1.1823215567939547
##지능:1.6931471805599454
##지도:1.0
##지막:1.0
##지먼트:2.0986122886681096
##지방:1.1823215567939547
##지사:1.0
##지엄:1.1823215567939547
##지역:1.0
##직:1.0
##직원:1.1823215567939547
##진:1.0
##진로:1.6931471805599454
##질:1.0
##짐:1.1823215567939547
##집:1.0
##짓:1.4054651081081644
##징:1.1823215567939547
##짜:1.0
##짜기:1.0
##짝:1.6931471805599454
##째:1.6931471805599454
##찌개:1.4054651081081644
##찍:1.1823215567939547
##찜:1.4054651081081644
##차:1.0
##차례:2.0986122886681096
##착:1.0
##찬:1.0
##찰:1.0
##참:1.0
##찻:1.4054651081081644
##창:1.0
##찾:1.0
##채:1.0
##책:1.0
##챌:1.0
##챔:1.4054651081081644
##챙:1.1823215567939547
##처:1.0
##처리:1.0
##처치:1.4054651081081644
##척:1.0
##천:1.0
##철:1.0
##철도:1.1823215567939547
##철수:1.6931471805599454
##첨:1.0
##첩:1.1823215567939547
##첫:1.1823215567939547
##청:1.0
##청사:1.6931471805599454
##체:1.0
##체육:1.1823215567939547
##체인:1.1823215567939547
##쳐:1.6931471805599454
##초:1.0
##촉:1.6931471805599454
##촌:1.1823215567939547
##촐:2.0986122886681096
##총:1.6931471805599454
##촬:1.0
##최:1.0
##추:1.0
##축:1.0
##축구:1.1823215567939547
##축제:1.0
##춘:1.1823215567939547
##출:1.0
##출산:1.4054651081081644
##춤:1.1823215567939547
##충:1.0
##취:1.0
##취업:1.1823215567939547
##츠:1.0
##측:1.0
##층:1.4054651081081644
##치:1.0
##치기:1.1823215567939547
##치료:1.1823215567939547
##치아:1.6931471805599454
##치즈:1.6931471805599454
##칙:1.4054651081081644
##친:1.0
##칠:1.1823215567939547
##침:1.0
##칭:1.0
##카:1.0
##카드:1.1823215567939547
##카라:1.4054651081081644
##카메라:1.1823215567939547
##카이:1.1823215567939547
##칵:1.6931471805599454
##칸:1.4054651081081644
##칼:1.1823215567939547
##캉스:1.1823215567939547
##캐:1.0
##캐피탈:1.6931471805599454
##캔:1.1823215567939547
##캘:1.0
##캠:1.0
##캠프:1.0
##캡:1.1823215567939547
##캣:1.6931471805599454
##커:1.0
##커스:1.1823215567939547
##커트:1.4054651081081644
##커피:1.0
##컨:1.0
##컬:1.0
##컴:1.1823215567939547
##컵:1.1823215567939547
##컷:1.6931471805599454
##케:1.0
##케어:1.1823215567939547
##케이:1.0
##케이션:1.6931471805599454
##케이크:1.4054651081081644
##켄:1.4054651081081644
##켓:1.0
##코:1.0
##코드:1.1823215567939547
##코르:1.6931471805599454
##코스:1.0
##코트:1.1823215567939547
##콕:1.4054651081081644
##콘:1.0
##콘서트:1.4054651081081644
##콜:1.0
##콩:1.4054651081081644
##쿄:1.6931471805599454
##쿠:1.1823215567939547
##쿠버:1.4054651081081644
##쿤:1.6931471805599454
##쿨:1.4054651081081644
##쿼:1.4054651081081644
##퀴:1.4054651081081644
##큐:1.0
##큐어:1.4054651081081644
##큘:1.4054651081081644
##크:1.0
##크라:1.4054651081081644
##크로:1.1823215567939547
##크리:1.0
##크림:1.4054651081081644
##큰:1.6931471805599454
##클:1.0
##클라:1.1823215567939547
##클럽:1.0
##클리:1.4054651081081644
##키:1.0
##키스탄:1.6931471805599454
##키아:1.6931471805599454
##키지:1.1823215567939547
##킥:1.6931471805599454
##킨:1.1823215567939547
##킬:1.0
##킷:1.1823215567939547
##킹:1.0
##타:1.0
##타고:1.4054651081081644
##타기:1.1823215567939547
##타니:1.4054651081081644
##타르:1.4054651081081644
##타운:1.4054651081081644
##타이:1.0
##타인:1.4054651081081644
##타임:1.0
##탁:1.1823215567939547
##탄:1.1823215567939547
##탈:1.0
##탐:1.0
##탑:1.1823215567939547
##탕:1.4054651081081644
##태:1.0
##태평양:2.0986122886681096
##택:1.0
##택시:1.6931471805599454
##탠:1.4054651081081644
##터:1.0
##터리:1.4054651081081644
##터카:1.6931471805599454
##턴:1.0
##턴트:1.6931471805599454
##털:1.0
##테:1.0
##테르부르크:1.6931471805599454
##테리:1.1823215567939547
##테리아:1.4054651081081644
##테스:1.0
##테이:1.0
##테이션:1.1823215567939547
##테일:1.4054651081081644
##테크:1.4054651081081644
##텍:2.0986122886681096
##텐:1.4054651081081644
##텐츠:1.4054651081081644
##텔:1.1823215567939547
##텔링:1.6931471805599454
##템:1.0
##토:1.0
##토르:1.6931471805599454
##토리:1.1823215567939547
##토스:1.4054651081081644
##톡:1.1823215567939547
##톡스:1.4054651081081644
##톤:1.0
##톱:1.4054651081081644
##통:1.0
##통신:1.6931471805599454
##통화:1.1823215567939547
##퇴:1.1823215567939547
##투:1.0
##투어:1.0
##투자:1.1823215567939547
##툴:1.6931471805599454
##튜:1.0
##튜브:1.4054651081081644
##튬:1.6931471805599454
##트:1.0
##트니:1.4054651081081644
##트라:1.4054651081081644
##트랙:1.1823215567939547
##트로:1.4054651081081644
##트리:1.0
##특:1.0
##특별:1.0
##튼:1.4054651081081644
##틀:1.0
##티:1.0
##티브:1.4054651081081644
##티스:1.0
##티지:1.0
##틱:1.0
##틴:1.1823215567939547
##팀:1.0
##팁:1.1823215567939547
##팅:1.0
##파:1.0
##파리:1.4054651081081644
##파이:1.0
##파이어:1.1823215567939547
##파크:1.0
##파티:1.0
##판:1.0
##팔:1.0
##팜:1.6931471805599454
##팝:1.4054651081081644
##팟:1.1823215567939547
##패:1.0
##패스:1.1823215567939547
##팩:1.0
##팩트:1.6931471805599454
##팬:1.0
##퍼:1.0
##퍼런스:1.1823215567939547
##퍼스:1.0
##펀:1.1823215567939547
##펄:1.6931471805599454
##펌:1.6931471805599454
##펍:1.4054651081081644
##페:1.0
##페스트:1.4054651081081644
##페이:1.1823215567939547
##페이스:1.1823215567939547
##페이지:1.0
##페인:1.0
##펜:1.1823215567939547
##펠:1.4054651081081644
##펫:1.4054651081081644
##편:1.0
##평:1.0
##평가:1.0
##폐:1.1823215567939547
##포:1.0
##포먼스:1.6931471805599454
##포스:1.4054651081081644
##포츠:1.0
##포터:1.4054651081081644
##포트:1.0
##폭:1.6931471805599454
##폰:1.0
##폴:1.0
##폴리:1.4054651081081644
##폴리스:1.6931471805599454
##폴리오:2.0986122886681096
##폼:1.1823215567939547
##표:1.0
##푸:1.1823215567939547
##푸드:1.1823215567939547
##푸르:1.6931471805599454
##풀:1.1823215567939547
##풀이:1.4054651081081644
##품:1.0
##풍:1.1823215567939547
##퓨:1.1823215567939547
##프:1.0
##프라:1.0
##프레:1.0
##프레스:1.6931471805599454
##프로:1.0
##프리:1.1823215567939547
##프스:1.1823215567939547
##프트:1.0
##픈:1.0
##플:1.0
##플랜:1.0
##플레이:1.0
##플로:1.1823215567939547
##피:1.0
##피스:1.4054651081081644
##피아:1.0
##픽:1.0
##핀:1.0
##필:1.0
##필드:1.1823215567939547
##핏:1.4054651081081644
##핑:1.0
##하:1.0
##하늘:1.4054651081081644
##하루:1.1823215567939547
##하마:2.0986122886681096
##하여:1.4054651081081644
##하우스:1.0
##하이:1.0
##하하:2.0986122886681096
##학:1.0
##학교:1.0
##학생:1.1823215567939547
##학습:1.0
##한:1.0
##할:1.0
##함:1.0
##합:1.0
##합니다:1.6931471805599454
##핫:1.0
##항:1.0
##항공:1.1823215567939547
##해:1.0
##해서:1.6931471805599454
##핸:1.1823215567939547
##햄:1.1823215567939547
##했:2.0986122886681096
##행:1.0
##행사:1.0
##행정:1.6931471805599454
##향:1.0
##허:1.0
##헌:1.1823215567939547
##험:1.0
##헤:1.0
##헤이:1.6931471805599454
##헬:1.0
##혁:1.1823215567939547
##현:1.0
##현실:1.4054651081081644
##혈:1.6931471805599454
##협:1.0
##협상:1.4054651081081644
##형:1.0
##혜:1.1823215567939547
##호:1.0
##호텔:1.1823215567939547
##호흡:1.6931471805599454
##혼:1.0
##홀:1.1823215567939547
##홈:1.0
##홍:1.1823215567939547
##화:1.0
##화가:1.6931471805599454
##화학:2.0986122886681096
##확:1.0
##환:1.0
##환경:1.0
##활:1.0
##황:1.0
##회:1.0
##회계:1.6931471805599454
##회관:1.0
##회사:1.0
##회원:1.1823215567939547
##회의:1.0
##회전:1.1823215567939547
##획:1.0
##효:1.0
##효과:1.4054651081081644
##후:1.0
##훈:1.4054651081081644
##훈련:1.0
##휘:1.1823215567939547
##휴:1.0
##휴가:1.1823215567939547
##흐:1.4054651081081644
##흥:1.4054651081081644
##희:1.1823215567939547
##히:1.1823215567939547
##힐:1.4054651081081644
##힘:1.1823215567939547
a:1.0
ab:1.0
about:1.0
abroad:1.1823215567939547
abstract:1.4054651081081644
abu:1.6931471805599454
ac:1.0
academic:1.1823215567939547
academy:1.1823215567939547
acceptance:1.6931471805599454
access:1.4054651081081644
accessibility:1.4054651081081644
accessible:1.6931471805599454
accessories:1.6931471805599454
accommodation:1.4054651081081644
account:1.6931471805599454
accountability:1.4054651081081644
accountant:1.4054651081081644
accounting:2.0986122886681096
accounts:1.6931471805599454
achievement:1.6931471805599454
achievements:1.4054651081081644
acoustic:1.4054651081081644
acquisition:1.1823215567939547
acquisitions:2.0986122886681096
across:1.4054651081081644
act:1.1823215567939547
action:1.0
active:1.1823215567939547
activities:1.0
activity:1.0
ad:1.1823215567939547
adams:1.4054651081081644
adaptation:1.6931471805599454
add:1.4054651081081644
address:1.1823215567939547
adele:2.0986122886681096
adi:1.1823215567939547
adjust:2.0986122886681096
adjustment:1.4054651081081644
administration:1.4054651081081644
administrative:2.0986122886681096
administrator:1.6931471805599454
admission:1.4054651081081644
admissions:1.6931471805599454
adoption:1.0
adriatic:1.6931471805599454
adult:1.1823215567939547
adults:1.1823215567939547
advanced:1.0
advancement:2.0986122886681096
advances:2.0986122886681096
advent:1.6931471805599454
adventure:1.0
adventures:1.4054651081081644
adventurous:1.6931471805599454
advertising:1.4054651081081644
advice:1.1823215567939547
advising:2.0986122886681096
advisor:1.4054651081081644
advisors:1.6931471805599454
advisory:2.0986122886681096
advocacy:1.6931471805599454
advocate:2.0986122886681096
aegean:2.0986122886681096
aerial:1.4054651081081644
aero:1.4054651081081644
af:2.0986122886681096
affair:1.6931471805599454
affairs:1.4054651081081644
affordable:1.1823215567939547
africa:1.6931471805599454
african:1.1823215567939547
after:1.0
afternoon:1.0
ag:1.1823215567939547
age:1.1823215567939547
agency:1.4054651081081644
agenda:1.6931471805599454
agent:1.0
ages:1.1823215567939547
agile:2.0986122886681096
agreement:1.4054651081081644
agricultural:1.1823215567939547
agriculture:1.1823215567939547
ai:1.1823215567939547
aid:1.0
air:1.0
aires:1.6931471805599454
airline:1.6931471805599454
airlines:1.6931471805599454
airport:1.6931471805599454
al:1.4054651081081644
ala:1.6931471805599454
alarm:1.6931471805599454
alaska:1.4054651081081644
album:1.4054651081081644
albuquerque:1.6931471805599454
ale:1.6931471805599454
alert:1.1823215567939547
alex:1.1823215567939547
algebra:2.0986122886681096
algorithm:2.0986122886681096
alice:1.4054651081081644
align:1.6931471805599454
alignment:1.1823215567939547
all:1.0
alley:1.1823215567939547
alliance:1.6931471805599454
alliances:1.6931471805599454
allocation:1.6931471805599454
alone:1.6931471805599454
along:1.1823215567939547
alpha:2.0986122886681096
alpine:1.4054651081081644
alps:1.6931471805599454
alumni:1.1823215567939547
am:1.0
ama:1.4054651081081644
amanda:1.6931471805599454
amateur:1.4054651081081644
amazing:1.6931471805599454
amazon:1.1823215567939547
amendment:2.0986122886681096
america:1.4054651081081644
american:1.1823215567939547
among:1.6931471805599454
amp:1.4054651081081644
amsterdam:1.6931471805599454
amusement:1.4054651081081644
amy:2.0986122886681096
an:1.0
ana:1.1823215567939547
analysis:1.0
analyst:2.0986122886681096
analytical:2.0986122886681096
analytics:1.6931471805599454
analyze:1.6931471805599454
anatomy:1.6931471805599454
ancestors:2.0986122886681096
ancient:1.1823215567939547
and:1.0
andes:1.6931471805599454
ang:2.0986122886681096
angeles:1.4054651081081644
angels:1.4054651081081644
animal:1.0
animated:1.6931471805599454
animation:1.1823215567939547
ann:1.0
anna:1.1823215567939547
anniversary:1.0
announcement:1.6931471805599454
annual:1.0
antarctica:2.0986122886681096
anthropology:2.0986122886681096
anti:1.4054651081081644
antique:1.0
antiques:2.0986122886681096
antonio:1.4054651081081644
antwerp:1.6931471805599454
anxiety:1.4054651081081644
ap:1.4054651081081644
apartment:1.1823215567939547
app:1.0
appalachian:1.6931471805599454
apple:1.1823215567939547
appliances:2.0986122886681096
applicable:1.4054651081081644
application:1.1823215567939547
applications:1.6931471805599454
applied:2.0986122886681096
apply:1.1823215567939547
appointment:1.4054651081081644
appreciation:1.1823215567939547
approaching:1.4054651081081644
approval:1.4054651081081644
aqua:1.1823215567939547
aquarium:1.1823215567939547
aquatic:1.4054651081081644
ar:1.1823215567939547
arabian:1.6931471805599454
arcade:1.4054651081081644
arch:1.4054651081081644
archaeology:1.6931471805599454
archery:1.1823215567939547
arches:1.6931471805599454
archipelago:1.6931471805599454
architect:1.6931471805599454
architectural:1.1823215567939547
architecture:1.0
archive:1.4054651081081644
arctic:1.6931471805599454
area:1.0
arena:1.6931471805599454
argentina:1.6931471805599454
arizona:1.6931471805599454
aroma:1.4054651081081644
around:1.1823215567939547
arrange:1.1823215567939547
arrangement:1.1823215567939547
arrangements:1.0
arranging:1.6931471805599454
arrival:1.1823215567939547
art:1.0
artifacts:1.4054651081081644
artificial:1.6931471805599454
artisans:1.1823215567939547
artist:1.1823215567939547
artistic:1.0
artists:1.1823215567939547
arts:1.0
artwork:1.6931471805599454
as:1.0
ashley:1.1823215567939547
asia:1.4054651081081644
asian:1.1823215567939547
ask:1.4054651081081644
aspects:2.0986122886681096
aspen:1.4054651081081644
assembly:1.4054651081081644
assessment:1.1823215567939547
assignment:1.6931471805599454
assignments:1.6931471805599454
assistance:1.4054651081081644
assistant:1.6931471805599454
associate:1.6931471805599454
associates:2.0986122886681096
association:1.4054651081081644
assurance:1.6931471805599454
astro:1.1823215567939547
astronomy:1.0
at:1.0
ata:2.0986122886681096
athens:1.6931471805599454
athletic:1.4054651081081644
atlanta:1.6931471805599454
atlantic:1.6931471805599454
attempt:1.6931471805599454
attend:1.0
attendance:1.1823215567939547
attending:1.4054651081081644
attic:1.6931471805599454
attire:1.4054651081081644
attractions:1.6931471805599454
auckland:2.0986122886681096
auction:1.1823215567939547
audience:1.4054651081081644
audio:1.0
audit:1.6931471805599454
aunt:1.1823215567939547
aurora:1.6931471805599454
austin:1.4054651081081644
australia:1.4054651081081644
australian:1.4054651081081644
austria:1.6931471805599454
author:1.4054651081081644
authors:1.1823215567939547
auto:1.1823215567939547
automated:1.6931471805599454
automatic:2.0986122886681096
automation:1.6931471805599454
autumn:1.1823215567939547
av:1.1823215567939547
ava:2.0986122886681096
availability:1.4054651081081644
available:1.6931471805599454
aviation:1.4054651081081644
aviv:2.0986122886681096
await:1.1823215567939547
award:1.1823215567939547
awards:1.1823215567939547
awareness:1.0
away:1.1823215567939547
azores:2.0986122886681096
b:1.1823215567939547
ba:1.1823215567939547
baby:1.1823215567939547
bachelor:1.4054651081081644
back:1.0
backpack:1.0
backup:1.4054651081081644
backyard:1.1823215567939547
bad:1.6931471805599454
badminton:1.4054651081081644
bag:1.0
bags:1.6931471805599454
bahamas:1.6931471805599454
bakery:1.1823215567939547
baking:1.4054651081081644
balance:1.4054651081081644
balancing:1.1823215567939547
bali:1.4054651081081644
ball:1.1823215567939547
ballet:1.0
balloon:1.0
ballot:2.0986122886681096
ballroom:1.4054651081081644
baltic:1.6931471805599454
baltimore:1.6931471805599454
bamboo:1.1823215567939547
ban:1.1823215567939547
band:1.0
bangkok:1.4054651081081644
bank:1.1823215567939547
banking:1.4054651081081644
banks:1.6931471805599454
banquet:1.4054651081081644
bar:1.0
barbecue:1.4054651081081644
barber:1.6931471805599454
barcelona:1.6931471805599454
bargain:2.0986122886681096
barn:1.4054651081081644
barre:1.4054651081081644
barrier:1.6931471805599454
base:1.1823215567939547
baseball:1.4054651081081644
basement:1.6931471805599454
bash:1.4054651081081644
basic:1.1823215567939547
basics:1.4054651081081644
basin:1.4054651081081644
basket:1.4054651081081644
basketball:1.1823215567939547
basque:2.0986122886681096
bass:1.6931471805599454
bath:1.1823215567939547
bathroom:1.4054651081081644
battle:1.4054651081081644
bavaria:1.6931471805599454
bavarian:1.4054651081081644
bay:1.0
bazaar:1.0
bb:1.0
be:1.1823215567939547
beach:1.0
beaches:2.0986122886681096
bear:1.4054651081081644
beard:1.6931471805599454
beat:1.4054651081081644
beautiful:1.4054651081081644
beauty:1.0
bed:1.1823215567939547
bedroom:2.0986122886681096
bee:1.0
beer:1.1823215567939547
before:1.0
begin:1.0
beginnings:1.6931471805599454
begins:1.0
behavior:1.1823215567939547
behavioral:1.4054651081081644
beijing:1.6931471805599454
belgium:1.6931471805599454
belize:1.6931471805599454
bell:1.1823215567939547
bella:1.6931471805599454
beloved:2.0986122886681096
belt:1.1823215567939547
ben:1.0
bench:1.4054651081081644
bend:1.6931471805599454
benefit:1.1823215567939547
benefits:1.6931471805599454
bent:2.0986122886681096
berlin:1.6931471805599454
berry:1.6931471805599454
best:1.0
beth:2.0986122886681096
better:1.0
betty:2.0986122886681096
beverage:1.1823215567939547
beyond:1.1823215567939547
bhutan:1.4054651081081644
bi:1.0
bible:2.0986122886681096
bicycle:1.1823215567939547
bidding:1.6931471805599454
big:1.0
bike:1.0
biking:1.1823215567939547
bill:1.1823215567939547
billie:1.4054651081081644
billing:1.6931471805599454
bills:1.6931471805599454
bin:1.6931471805599454
bing:1.6931471805599454
bingo:2.0986122886681096
bio:1.1823215567939547
biochemistry:2.0986122886681096
biodiversity:1.4054651081081644
biology:1.6931471805599454
biotechnology:1.6931471805599454
bird:1.0
birth:1.4054651081081644
birthday:1.0
bis:1.4054651081081644
bites:1.4054651081081644
bl:1.4054651081081644
black:1.0
blast:1.1823215567939547
blessing:2.0986122886681096
blind:2.0986122886681096
bliss:1.1823215567939547
blitz:1.4054651081081644
block:1.0
blog:1.4054651081081644
blood:1.1823215567939547
bloom:1.1823215567939547
blossom:1.1823215567939547
blossoms:1.6931471805599454
blow:1.1823215567939547
blue:1.0
bluegrass:1.6931471805599454
blues:1.4054651081081644
bo:1.4054651081081644
board:1.0
boarding:1.6931471805599454
boat:1.0
bob:1.1823215567939547
body:1.0
bohemian:1.6931471805599454
bollywood:1.4054651081081644
bon:1.0
bond:1.4054651081081644
bonding:1.1823215567939547
bone:2.0986122886681096
bonfire:1.6931471805599454
book:1.0
booked:2.0986122886681096
booking:1.4054651081081644
books:1.1823215567939547
bookstore:1.0
boost:1.4054651081081644
boot:1.0
booth:1.1823215567939547
boots:1.6931471805599454
bordeaux:1.6931471805599454
borneo:2.0986122886681096
borrowed:2.0986122886681096
borrowing:2.0986122886681096
boss:1.1823215567939547
boston:1.1823215567939547
botanic:1.4054651081081644
botanical:1.1823215567939547
botswana:1.6931471805599454
boundary:1.6931471805599454
boutique:1.0
bowl:1.1823215567939547
bowling:1.6931471805599454
box:1.4054651081081644
boxes:2.0986122886681096
boxing:1.4054651081081644
boys:1.4054651081081644
br:1.0
brace:1.6931471805599454
braid:2.0986122886681096
brain:1.6931471805599454
brains:1.4054651081081644
brand:1.0
branding:1.1823215567939547
brazil:2.0986122886681096
brazilian:1.4054651081081644
bread:1.4054651081081644
break:1.0
breakfast:1.0
breath:1.4054651081081644
breathing:1.6931471805599454
breeze:1.4054651081081644
brew:1.1823215567939547
brewery:1.4054651081081644
brewing:1.4054651081081644
brian:2.0986122886681096
bride:1.6931471805599454
bridge:1.1823215567939547
brief:1.6931471805599454
briefing:1.6931471805599454
bright:1.1823215567939547
bring:1.1823215567939547
british:1.1823215567939547
broadcast:1.1823215567939547
broadway:1.4054651081081644
broken:1.6931471805599454
bronx:1.4054651081081644
brother:1.6931471805599454
brow:2.0986122886681096
brown:1.4054651081081644
brows:1.4054651081081644
brussels:1.6931471805599454
bryce:1.4054651081081644
bu:1.1823215567939547
budapest:1.6931471805599454
buddhist:1.4054651081081644
buddies:1.6931471805599454
buddy:1.1823215567939547
budget:1.0
buenos:1.6931471805599454
buffet:1.6931471805599454
build:1.1823215567939547
building:1.0
bun:1.4054651081081644
bungalow:1.4054651081081644
burger:1.1823215567939547
burn:1.4054651081081644
bus:1.0
busch:2.0986122886681096
business:1.0
businesses:1.6931471805599454
butterfly:1.4054651081081644
buy:1.4054651081081644
buying:1.6931471805599454
by:1.0
c:1.1823215567939547
ca:1.0
cab:1.4054651081081644
cabaret:1.6931471805599454
cabin:1.1823215567939547
cabinet:2.0986122886681096
cabinets:2.0986122886681096
cable:1.6931471805599454
caf:1.1823215567939547
cafe:1.1823215567939547
cake:1.1823215567939547
cal:1.1823215567939547
calculus:2.0986122886681096
caleb:2.0986122886681096
calendar:1.0
calgary:1.6931471805599454
california:1.1823215567939547
call:1.0
calm:1.4054651081081644
cam:1.6931471805599454
cambodia:2.0986122886681096
camera:1.4054651081081644
camp:1.0
campaign:1.0
campground:1.4054651081081644
camping:1.1823215567939547
campo:1.4054651081081644
camps:1.4054651081081644
campus:1.4054651081081644
can:1.0
canada:1.4054651081081644
canadian:1.4054651081081644
canal:1.6931471805599454
canary:2.0986122886681096
cancel:1.1823215567939547
cancellation:1.1823215567939547
cancer:1.1823215567939547
candle:1.1823215567939547
candles:1.6931471805599454
candy:1.4054651081081644
canoe:1.1823215567939547
canvas:1.4054651081081644
canyon:1.4054651081081644
cap:1.0
cape:1.4054651081081644
capital:1.1823215567939547
car:1.0
card:1.0
cards:1.4054651081081644
care:1.1823215567939547
career:1.0
caribbean:1.4054651081081644
carl:1.1823215567939547
carmen:1.4054651081081644
carnival:1.0
carol:1.1823215567939547
carolina:1.6931471805599454
carp:1.6931471805599454
carpathian:2.0986122886681096
carpet:1.6931471805599454
cart:1.0
carter:1.1823215567939547
carving:1.1823215567939547
casa:1.4054651081081644
case:1.6931471805599454
cash:1.1823215567939547
casino:1.4054651081081644
cast:1.1823215567939547
castle:1.4054651081081644
castles:2.0986122886681096
casual:1.1823215567939547
cat:1.1823215567939547
catalog:1.6931471805599454
catch:1.0
catering:1.1823215567939547
cathedral:1.6931471805599454
cats:1.4054651081081644
caucasus:2.0986122886681096
cause:1.1823215567939547
cave:1.1823215567939547
cavern:1.6931471805599454
caves:2.0986122886681096
cd:2.0986122886681096
ce:1.0
ceiling:2.0986122886681096
celebrate:1.0
celebrating:1.4054651081081644
celebration:1.0
celebrations:1.0
celestial:1.6931471805599454
cellar:1.1823215567939547
celtic:1.4054651081081644
center:1.0
central:1.0
centre:1.6931471805599454
ceo:1.4054651081081644
ceramic:1.6931471805599454
ceramics:1.0
ceremony:1.0
certificate:1.4054651081081644
certification:1.4054651081081644
certified:2.0986122886681096
cf:1.6931471805599454
cha:1.1823215567939547
chain:1.0
chair:1.6931471805599454
challenge:1.0
challenges:1.6931471805599454
champagne:1.6931471805599454
champion:1.4054651081081644
championship:1.4054651081081644
chance:1.4054651081081644
change:1.0
changes:1.4054651081081644
changing:1.4054651081081644
channel:1.1823215567939547
chapel:1.4054651081081644
chapter:1.4054651081081644
char:1.6931471805599454
charge:2.0986122886681096
charity:1.0
charleston:1.4054651081081644
charlotte:1.4054651081081644
charm:1.0
charming:1.4054651081081644
chart:1.4054651081081644
charter:1.1823215567939547
chasing:2.0986122886681096
chat:1.1823215567939547
cheap:1.6931471805599454
check:1.0
cheer:1.6931471805599454
cheers:2.0986122886681096
cheese:1.1823215567939547
chef:1.0
chefs:1.6931471805599454
chemistry:2.0986122886681096
cher:1.4054651081081644
cherry:1.4054651081081644
chesapeake:1.6931471805599454
chess:1.0
chi:1.0
chicago:1.1823215567939547
chicken:1.4054651081081644
child:1.0
childhood:1.1823215567939547
children:1.0
chile:1.6931471805599454
chili:1.6931471805599454
chill:1.0
china:1.4054651081081644
chinese:1.4054651081081644
chip:1.4054651081081644
chloe:1.6931471805599454
cho:1.1823215567939547
chocolate:1.0
choice:1.4054651081081644
choir:1.1823215567939547
choreography:1.1823215567939547
chris:1.4054651081081644
christian:1.6931471805599454
christmas:1.0
chu:1.0
church:1.4054651081081644
ci:1.1823215567939547
cid:1.6931471805599454
cincinnati:1.6931471805599454
cinema:1.1823215567939547
circle:1.1823215567939547
circuit:1.4054651081081644
circular:2.0986122886681096
circus:1.6931471805599454
cities:1.6931471805599454
citizenship:1.4054651081081644
city:1.0
civic:1.1823215567939547
civil:1.4054651081081644
civilizations:1.4054651081081644
cl:1.0
claim:1.1823215567939547
claire:2.0986122886681096
clara:1.6931471805599454
clarity:1.1823215567939547
class:1.0
classes:1.4054651081081644
classic:1.0
classical:1.1823215567939547
classics:1.4054651081081644
classroom:1.6931471805599454
clay:1.1823215567939547
clean:1.1823215567939547
cleaner:1.4054651081081644
cleaning:1.1823215567939547
cleanup:1.0
clear:1.1823215567939547
cleveland:1.6931471805599454
client:1.1823215567939547
clients:1.1823215567939547
cliff:1.4054651081081644
cliffs:1.6931471805599454
climate:1.6931471805599454
climb:1.1823215567939547
climbing:1.0
clinic:1.0
clinical:1.4054651081081644
close:1.1823215567939547
closet:1.6931471805599454
closing:1.1823215567939547
closure:1.6931471805599454
clothes:2.0986122886681096
clothing:1.1823215567939547
cloud:1.1823215567939547
club:1.0
clubhouse:1.6931471805599454
clubs:1.1823215567939547
cm:2.0986122886681096
co:1.0
coach:1.0
coaching:1.0
coast:1.4054651081081644
coastal:1.4054651081081644
coaster:2.0986122886681096
coastline:2.0986122886681096
coat:1.6931471805599454
cocktail:1.1823215567939547
cocoa:1.1823215567939547
cod:1.6931471805599454
code:1.1823215567939547
coding:1.4054651081081644
coffee:1.0
cognitive:1.6931471805599454
col:1.0
cold:1.1823215567939547
collaboration:1.0
collaborative:1.4054651081081644
colleagues:1.0
collect:1.1823215567939547
collection:1.1823215567939547
collective:1.4054651081081644
collectors:1.6931471805599454
college:1.0
colombia:2.0986122886681096
colonial:1.4054651081081644
color:1.1823215567939547
colorado:1.6931471805599454
coloring:1.4054651081081644
colors:1.4054651081081644
columbia:1.4054651081081644
combo:1.0
come:1.0
comedy:1.0
comfort:1.0
comic:1.4054651081081644
comm:1.4054651081081644
commemorating:2.0986122886681096
commemoration:1.6931471805599454
commemorative:1.6931471805599454
commencement:1.6931471805599454
commercial:1.1823215567939547
committee:1.4054651081081644
committees:2.0986122886681096
communication:1.0
communications:1.6931471805599454
community:1.0
comp:1.1823215567939547
company:1.0
comparative:2.0986122886681096
compare:1.6931471805599454
compensation:1.4054651081081644
compete:1.6931471805599454
competition:1.0
competitive:1.1823215567939547
competitor:1.6931471805599454
compilation:1.6931471805599454
complaint:1.4054651081081644
complete:1.1823215567939547
completion:1.4054651081081644
compliance:1.4054651081081644
composition:1.4054651081081644
comprehensive:1.4054651081081644
computer:1.1823215567939547
computing:1.6931471805599454
con:1.0
concepts:2.0986122886681096
concert:1.0
condition:2.0986122886681096
conditioning:1.6931471805599454
conditions:1.4054651081081644
conduct:1.4054651081081644
conference:1.0
conferences:2.0986122886681096
confidence:1.6931471805599454
confirm:1.0
confirmation:1.0
confirmed:1.4054651081081644
conflict:1.6931471805599454
connect:1.1823215567939547
connecting:1.1823215567939547
connection:1.0
conquer:1.4054651081081644
conservation:1.0
conservatory:1.4054651081081644
console:2.0986122886681096
construction:1.1823215567939547
consultant:1.1823215567939547
consultation:1.0
consulting:1.1823215567939547
consumer:1.4054651081081644
cont:1.1823215567939547
contact:1.1823215567939547
contemporary:1.1823215567939547
content:1.6931471805599454
contest:1.0
continuing:2.0986122886681096
continuity:1.6931471805599454
contract:1.1823215567939547
contracts:2.0986122886681096
contribution:1.4054651081081644
control:1.1823215567939547
convention:1.1823215567939547
conversation:1.4054651081081644
cook:1.0
cookie:2.0986122886681096
cookies:1.6931471805599454
cooking:1.0
cool:1.1823215567939547
coordinate:1.4054651081081644
coordination:1.4054651081081644
coordinator:1.6931471805599454
copenhagen:1.6931471805599454
coral:1.4054651081081644
cord:1.4054651081081644
core:1.4054651081081644
corn:1.1823215567939547
corner:1.1823215567939547
cornwall:1.6931471805599454
corp:1.6931471805599454
corporate:1.1823215567939547
cost:1.1823215567939547
costa:1.4054651081081644
costume:1.4054651081081644
cot:1.4054651081081644
cottage:1.1823215567939547
council:1.6931471805599454
counseling:1.1823215567939547
counselor:1.4054651081081644
countdown:1.1823215567939547
country:1.0
countryside:1.4054651081081644
county:1.1823215567939547
coup:1.6931471805599454
couples:1.4054651081081644
course:1.0
courses:1.4054651081081644
court:1.1823215567939547
cousin:1.6931471805599454
cousins:1.6931471805599454
cove:1.4054651081081644
cover:1.4054651081081644
coverage:1.4054651081081644
cow:1.1823215567939547
cozy:1.1823215567939547
cr:1.0
crab:1.4054651081081644
cracked:2.0986122886681096
craft:1.0
crafts:1.1823215567939547
crater:1.6931471805599454
crawl:1.4054651081081644
cream:1.4054651081081644
create:1.1823215567939547
creating:1.4054651081081644
creation:1.0
creations:1.0
creative:1.0
creativity:1.0
credit:1.1823215567939547
creek:1.1823215567939547
creeks:2.0986122886681096
crest:1.4054651081081644
crew:1.0
cricket:1.4054651081081644
crisis:1.1823215567939547
criteria:2.0986122886681096
critical:1.4054651081081644
critique:1.4054651081081644
croatia:2.0986122886681096
cross:1.0
crown:1.6931471805599454
cruise:1.4054651081081644
cruises:1.6931471805599454
crypt:1.4054651081081644
crystal:1.0
cs:2.0986122886681096
ct:1.6931471805599454
cu:1.0
cuisine:1.1823215567939547
culinary:1.0
cult:1.4054651081081644
cultural:1.0
culture:1.0
cultures:1.1823215567939547
cup:1.4054651081081644
cupboard:2.0986122886681096
curated:1.6931471805599454
curb:1.6931471805599454
currency:1.4054651081081644
current:1.4054651081081644
curriculum:2.0986122886681096
curry:1.4054651081081644
curtain:1.6931471805599454
curtains:2.0986122886681096
custom:1.0
customer:1.0
customized:1.4054651081081644
cut:1.4054651081081644
cutting:1.1823215567939547
cyber:1.4054651081081644
cycle:1.0
cycling:1.1823215567939547
czech:1.6931471805599454
d:1.0
da:1.1823215567939547
dad:1.1823215567939547
daily:1.0
dallas:1.4054651081081644
damaged:1.6931471805599454
dan:1.4054651081081644
dance:1.0
dancing:1.4054651081081644
daniels:2.0986122886681096
danube:2.0986122886681096
dark:1.0
data:1.4054651081081644
database:2.0986122886681096
date:1.0
dates:1.1823215567939547
dating:1.4054651081081644
daughters:1.4054651081081644
dave:1.1823215567939547
david:1.1823215567939547
day:1.0
dc:1.4054651081081644
de:1.0
dea:2.0986122886681096
dead:1.4054651081081644
deadline:1.1823215567939547
deal:1.1823215567939547
deals:1.0
dear:1.6931471805599454
death:1.6931471805599454
debate:1.4054651081081644
debt:1.6931471805599454
dec:1.6931471805599454
deceased:2.0986122886681096
december:2.0986122886681096
decision:1.6931471805599454
deck:1.1823215567939547
deco:1.0
decor:1.4054651081081644
decoration:1.4054651081081644
decorations:1.6931471805599454
dedication:1.1823215567939547
deep:1.0
def:1.1823215567939547
defense:2.0986122886681096
degree:1.6931471805599454
del:1.0
delight:1.1823215567939547
deliver:1.1823215567939547
delivery:1.0
delta:1.4054651081081644
demo:1.4054651081081644
demonstration:1.0
den:1.4054651081081644
denmark:2.0986122886681096
dent:1.6931471805599454
dental:1.6931471805599454
dentist:1.6931471805599454
dentistry:1.6931471805599454
denver:1.6931471805599454
departed:2.0986122886681096
department:1.1823215567939547
departmental:1.6931471805599454
departure:1.1823215567939547
deployment:2.0986122886681096
deposit:1.4054651081081644
der:1.6931471805599454
derby:1.4054651081081644
des:1.1823215567939547
desert:1.4054651081081644
design:1.0
designer:1.4054651081081644
desk:1.4054651081081644
dessert:1.1823215567939547
destination:1.4054651081081644
det:1.1823215567939547
details:1.0
detroit:1.6931471805599454
dev:1.6931471805599454
develop:1.6931471805599454
developer:1.6931471805599454
developing:2.0986122886681096
development:1.0
device:1.6931471805599454
devotion:1.6931471805599454
dhabi:1.6931471805599454
di:1.0
dia:1.1823215567939547
diabetes:1.6931471805599454
dialogue:1.4054651081081644
diego:1.1823215567939547
diet:1.4054651081081644
dig:1.6931471805599454
digital:1.0
dil:2.0986122886681096
dim:1.4054651081081644
din:1.4054651081081644
diner:1.4054651081081644
dining:1.0
dinner:1.0
dinosaur:1.4054651081081644
diploma:1.6931471805599454
director:1.4054651081081644
directors:1.4054651081081644
dis:1.1823215567939547
disabilities:1.1823215567939547
disaster:1.6931471805599454
disco:1.4054651081081644
discount:1.1823215567939547
discover:1.0
discovering:1.4054651081081644
discovery:1.0
discuss:1.4054651081081644
discussion:1.0
disease:1.4054651081081644
dish:1.4054651081081644
dishes:1.4054651081081644
disney:1.4054651081081644
disneyland:1.6931471805599454
display:1.0
disposal:2.0986122886681096
dispute:1.4054651081081644
disruption:1.4054651081081644
distance:1.0
distillery:1.4054651081081644
distinguished:1.6931471805599454
distribution:1.1823215567939547
district:1.0
dive:1.1823215567939547
diversity:1.4054651081081644
diving:1.1823215567939547
dj:1.4054651081081644
do:1.0
doctor:1.6931471805599454
doctors:1.6931471805599454
document:1.6931471805599454
documentary:1.1823215567939547
documentation:1.4054651081081644
documents:1.0
dog:1.1823215567939547
dogs:1.1823215567939547
dolphin:1.6931471805599454
dolphins:1.6931471805599454
dome:1.4054651081081644
don:1.1823215567939547
donate:2.0986122886681096
donation:1.1823215567939547
donations:2.0986122886681096
door:1.1823215567939547
double:1.6931471805599454
down:1.0
download:1.4054651081081644
downtown:1.0
dr:1.0
draft:1.1823215567939547
drafting:2.0986122886681096
dragon:1.6931471805599454
dragons:1.6931471805599454
drama:1.1823215567939547
drawer:2.0986122886681096
drawers:2.0986122886681096
drawing:1.1823215567939547
dream:1.0
dreams:1.4054651081081644
dress:1.1823215567939547
drill:1.6931471805599454
drills:1.4054651081081644
drink:1.6931471805599454
drinks:1.0
drive:1.0
drivers:1.4054651081081644
driveway:2.0986122886681096
drone:1.4054651081081644
drop:1.0
drum:1.1823215567939547
drumming:1.4054651081081644
dry:1.1823215567939547
du:1.1823215567939547
dubai:1.6931471805599454
dublin:1.6931471805599454
due:1.4054651081081644
dunes:1.6931471805599454
during:1.1823215567939547
dust:2.0986122886681096
dustin:2.0986122886681096
dvd:2.0986122886681096
dylan:2.0986122886681096
dynamic:1.4054651081081644
dynamics:1.4054651081081644
e:1.0
ear:2.0986122886681096
early:1.0
earth:1.0
east:1.1823215567939547
easter:1.0
eastern:1.1823215567939547
easy:1.1823215567939547
eat:2.0986122886681096
eater:1.1823215567939547
eating:1.1823215567939547
eats:1.6931471805599454
eb:1.6931471805599454
eco:1.0
economic:1.4054651081081644
economics:1.6931471805599454
economy:1.6931471805599454
ecosystem:1.4054651081081644
ed:1.1823215567939547
edge:1.0
edinburgh:1.6931471805599454
editing:1.1823215567939547
edition:1.0
editor:1.4054651081081644
editorial:2.0986122886681096
education:1.0
educational:1.0
educator:1.4054651081081644
effective:1.6931471805599454
effectiveness:1.6931471805599454
effects:1.1823215567939547
efficiency:1.4054651081081644
egg:1.1823215567939547
egypt:1.6931471805599454
el:1.0
elders:2.0986122886681096
election:1.4054651081081644
electric:1.0
electrical:1.4054651081081644
electricity:1.4054651081081644
electronic:1.1823215567939547
electronics:1.1823215567939547
elegance:1.4054651081081644
elegant:1.1823215567939547
elementary:1.6931471805599454
ella:2.0986122886681096
em:1.0
email:1.4054651081081644
emails:1.6931471805599454
emergency:1.0
emerging:1.6931471805599454
emily:1.1823215567939547
emma:1.6931471805599454
emotional:1.1823215567939547
empire:1.4054651081081644
employee:1.1823215567939547
employees:2.0986122886681096
employer:2.0986122886681096
employment:2.0986122886681096
empowerment:1.1823215567939547
empty:2.0986122886681096
en:1.0
enchanted:1.4054651081081644
encounter:1.4054651081081644
end:1.0
endurance:1.4054651081081644
energy:1.0
engagement:1.0
engine:1.6931471805599454
engineer:1.6931471805599454
engineering:1.4054651081081644
england:1.6931471805599454
english:1.1823215567939547
enhance:1.4054651081081644
enhancement:1.4054651081081644
enhancing:1.6931471805599454
enjoy:1.1823215567939547
enjoying:2.0986122886681096
enrollment:1.1823215567939547
enterprise:1.6931471805599454
entertainment:1.0
enthusiasts:1.1823215567939547
entrance:1.0
entrepreneur:1.6931471805599454
entrepreneurs:2.0986122886681096
entrepreneurship:1.4054651081081644
entry:1.1823215567939547
environment:1.4054651081081644
environmental:1.1823215567939547
ep:1.4054651081081644
epic:1.4054651081081644
equestrian:1.4054651081081644
equipment:1.1823215567939547
equity:1.4054651081081644
er:1.1823215567939547
eric:1.6931471805599454
es:1.0
escape:1.0
essay:1.6931471805599454
essential:1.1823215567939547
estate:1.0
et:1.0
ethan:1.4054651081081644
ethical:1.4054651081081644
ethics:1.6931471805599454
eu:1.4054651081081644
europe:1.4054651081081644
european:1.1823215567939547
evaluate:1.6931471805599454
evaluation:1.0
eve:1.4054651081081644
evening:1.0
event:1.0
events:1.0
ever:1.4054651081081644
evolution:1.6931471805599454
ex:1.1823215567939547
exam:1.1823215567939547
examination:1.6931471805599454
exams:1.6931471805599454
excel:2.0986122886681096
excellence:1.4054651081081644
exchange:1.0
excitement:1.6931471805599454
exciting:1.4054651081081644
exclusive:1.1823215567939547
excursion:1.1823215567939547
execution:2.0986122886681096
executive:1.4054651081081644
executives:2.0986122886681096
exercise:1.4054651081081644
exercises:1.1823215567939547
exhibit:1.0
exhibition:1.0
exit:1.6931471805599454
exotic:1.1823215567939547
exp:1.0
expansion:1.1823215567939547
expectations:2.0986122886681096
expedition:1.1823215567939547
expense:1.6931471805599454
expenses:1.6931471805599454
experience:1.0
experiences:1.1823215567939547
experiencing:1.4054651081081644
experiment:1.4054651081081644
experimental:1.4054651081081644
expert:1.4054651081081644
experts:1.1823215567939547
exploration:1.0
explore:1.0
exploring:1.1823215567939547
expo:1.0
export:1.6931471805599454
express:1.0
extended:1.0
extension:1.4054651081081644
external:1.6931471805599454
extra:1.0
extraction:2.0986122886681096
eye:1.4054651081081644
eyebrow:2.0986122886681096
f:1.0
fa:1.0
fabric:1.6931471805599454
face:1.1823215567939547
facial:2.0986122886681096
facilities:1.1823215567939547
facility:1.1823215567939547
factory:1.0
faculty:1.6931471805599454
fair:1.0
fairy:1.1823215567939547
faith:1.4054651081081644
fall:1.0
fallen:1.6931471805599454
falls:1.6931471805599454
families:1.0
family:1.0
famous:1.1823215567939547
fan:1.1823215567939547
fancy:1.4054651081081644
fans:1.6931471805599454
fantasy:1.0
farewell:1.1823215567939547
farm:1.0
farmers:1.1823215567939547
farmhouse:1.1823215567939547
fashion:1.0
fast:1.0
father:2.0986122886681096
fathers:1.4054651081081644
faulty:2.0986122886681096
favorite:1.1823215567939547
favors:1.6931471805599454
fe:1.1823215567939547
feast:1.1823215567939547
feature:1.1823215567939547
fee:1.4054651081081644
feedback:1.1823215567939547
fees:1.4054651081081644
fellowship:1.6931471805599454
fence:2.0986122886681096
fencing:1.4054651081081644
ferry:2.0986122886681096
fest:1.0
festival:1.0
festivals:1.6931471805599454
festivities:1.4054651081081644
fetch:2.0986122886681096
fever:1.6931471805599454
fi:1.1823215567939547
fiction:1.1823215567939547
field:1.0
fields:1.1823215567939547
fiesta:1.0
fight:1.4054651081081644
fighters:2.0986122886681096
figures:1.4054651081081644
fiji:1.6931471805599454
file:1.6931471805599454
files:2.0986122886681096
filing:1.4054651081081644
filling:2.0986122886681096
film:1.0
filter:2.0986122886681096
fin:2.0986122886681096
final:1.0
finals:1.4054651081081644
finance:1.1823215567939547
financial:1.0
find:1.1823215567939547
finding:1.1823215567939547
findings:2.0986122886681096
finds:1.4054651081081644
fine:1.0
finger:1.6931471805599454
finish:1.4054651081081644
finland:1.6931471805599454
fire:1.0
fireplace:1.4054651081081644
fires:1.1823215567939547
fireworks:1.4054651081081644
firm:1.4054651081081644
first:1.0
fish:1.0
fishing:1.1823215567939547
fit:1.4054651081081644
fitness:1.0
fitting:1.4054651081081644
five:1.1823215567939547
fix:1.1823215567939547
fixture:2.0986122886681096
fixtures:2.0986122886681096
fjord:1.6931471805599454
fl:1.4054651081081644
flags:1.1823215567939547
flame:1.1823215567939547
flash:1.1823215567939547
flavors:1.4054651081081644
flea:1.4054651081081644
flexibility:1.4054651081081644
flexible:1.6931471805599454
flight:1.0
flights:1.6931471805599454
fling:1.4054651081081644
floor:1.4054651081081644
floors:2.0986122886681096
floral:1.1823215567939547
florence:1.6931471805599454
florida:1.6931471805599454
flow:1.0
flower:1.0
flowers:1.4054651081081644
flu:1.4054651081081644
fly:1.1823215567939547
flying:1.1823215567939547
focus:1.1823215567939547
focused:1.1823215567939547
foliage:1.1823215567939547
folk:1.4054651081081644
folklore:1.4054651081081644
follow:1.1823215567939547
fond:1.6931471805599454
food:1.0
foot:1.0
football:1.1823215567939547
for:1.0
force:1.6931471805599454
forecast:1.4054651081081644
foreign:1.1823215567939547
forensic:2.0986122886681096
forest:1.0
forests:1.6931471805599454
forget:1.4054651081081644
form:1.4054651081081644
formal:1.4054651081081644
format:2.0986122886681096
fort:1.1823215567939547
forum:1.0
found:1.6931471805599454
foundation:1.1823215567939547
four:1.1823215567939547
fourth:1.1823215567939547
fr:1.1823215567939547
frame:1.6931471805599454
framework:1.6931471805599454
france:1.6931471805599454
franchise:1.4054651081081644
francisco:1.4054651081081644
free:1.0
freelance:1.6931471805599454
freeze:1.6931471805599454
french:1.0
fresh:1.1823215567939547
friday:1.4054651081081644
friend:1.1823215567939547
friendly:1.4054651081081644
friends:1.0
friendship:1.4054651081081644
from:1.0
front:1.4054651081081644
fry:1.4054651081081644
fu:1.4054651081081644
fuji:1.6931471805599454
full:1.0
fun:1.1823215567939547
fund:1.1823215567939547
fundamental:2.0986122886681096
funding:2.0986122886681096
fundraiser:1.1823215567939547
fundraising:1.0
funeral:1.4054651081081644
funnel:1.6931471805599454
furniture:1.0
fusion:1.1823215567939547
future:1.0
g:1.1823215567939547
ga:1.0
gabriel:1.4054651081081644
gal:1.4054651081081644
gala:1.0
gallery:1.0
game:1.0
games:1.0
gaming:1.0
gang:1.6931471805599454
garage:1.6931471805599454
garbage:2.0986122886681096
garden:1.0
gardening:1.0
gardens:1.1823215567939547
gas:1.1823215567939547
gate:1.1823215567939547
gather:1.1823215567939547
gathering:1.0
gatherings:1.6931471805599454
gazing:1.1823215567939547
ge:1.1823215567939547
gear:1.0
gem:1.1823215567939547
gems:1.1823215567939547
gen:1.1823215567939547
gender:1.6931471805599454
general:1.1823215567939547
generation:1.6931471805599454
genetic:1.6931471805599454
genetics:2.0986122886681096
geneva:1.6931471805599454
gentle:1.6931471805599454
geography:2.0986122886681096
geology:1.4054651081081644
geometry:2.0986122886681096
george:1.1823215567939547
georgia:1.6931471805599454
german:1.1823215567939547
germany:1.6931471805599454
get:1.0
getting:1.1823215567939547
ghost:1.4054651081081644
gi:1.4054651081081644
giant:1.4054651081081644
giants:1.6931471805599454
gift:1.1823215567939547
gifts:1.6931471805599454
gig:1.6931471805599454
ginger:1.4054651081081644
girls:1.1823215567939547
give:1.1823215567939547
giving:1.1823215567939547
gl:1.0
glacier:1.6931471805599454
glaciers:2.0986122886681096
glamour:1.4054651081081644
glass:1.1823215567939547
glasses:1.6931471805599454
glen:1.6931471805599454
global:1.1823215567939547
globe:1.4054651081081644
glow:1.6931471805599454
gma:2.0986122886681096
go:1.0
goal:1.1823215567939547
goals:1.1823215567939547
gogh:2.0986122886681096
going:1.0
gold:1.1823215567939547
golden:1.1823215567939547
golf:1.0
good:1.0
goodbye:2.0986122886681096
goods:1.4054651081081644
google:1.6931471805599454
gorge:2.0986122886681096
gospel:1.4054651081081644
governance:1.4054651081081644
government:1.4054651081081644
gr:1.0
grab:1.4054651081081644
grace:1.1823215567939547
grade:2.0986122886681096
grading:1.6931471805599454
graduate:1.6931471805599454
graduates:1.6931471805599454
graduation:1.0
graffiti:1.6931471805599454
grammar:2.0986122886681096
grand:1.1823215567939547
grandfather:1.6931471805599454
grandma:1.4054651081081644
grandmother:1.6931471805599454
grandpa:1.6931471805599454
grandparents:1.4054651081081644
grant:1.6931471805599454
graphic:1.1823215567939547
grass:1.6931471805599454
gratitude:1.0
gre:1.6931471805599454
great:1.0
greece:1.4054651081081644
greek:1.1823215567939547
green:1.0
greenhouse:1.1823215567939547
greenland:2.0986122886681096
greet:1.0
greeting:1.4054651081081644
grill:1.1823215567939547
grille:1.4054651081081644
groceries:2.0986122886681096
grocery:1.1823215567939547
groom:1.1823215567939547
groove:1.6931471805599454
group:1.0
groups:1.1823215567939547
grove:1.6931471805599454
growth:1.0
gu:1.4054651081081644
guest:1.0
guests:1.4054651081081644
guidance:1.1823215567939547
guide:1.0
guided:1.0
guidelines:1.4054651081081644
guitar:1.0
gulf:2.0986122886681096
gum:1.6931471805599454
gut:2.0986122886681096
guys:1.4054651081081644
gym:1.4054651081081644
gymnastics:1.4054651081081644
h:1.0
ha:1.1823215567939547
habit:1.6931471805599454
habits:1.6931471805599454
hack:1.4054651081081644
hacking:2.0986122886681096
hair:1.6931471805599454
hall:1.0
halloween:1.1823215567939547
ham:1.1823215567939547
hamilton:1.6931471805599454
hampshire:2.0986122886681096
han:1.6931471805599454
hand:1.1823215567939547
handle:1.6931471805599454
hands:1.0
hang:1.1823215567939547
hannah:1.6931471805599454
happiness:1.1823215567939547
happy:1.0
harbor:1.4054651081081644
hardware:1.6931471805599454
harmony:1.1823215567939547
harry:1.4054651081081644
harvest:1.1823215567939547
hat:1.1823215567939547
haunted:1.1823215567939547
havana:1.4054651081081644
have:1.1823215567939547
haven:1.0
hawaii:1.6931471805599454
hawaiian:1.4054651081081644
he:1.1823215567939547
head:1.0
heads:1.1823215567939547
healing:1.1823215567939547
health:1.0
healthcare:1.0
healthy:1.0
hearing:1.6931471805599454
heart:1.1823215567939547
hearts:1.6931471805599454
heat:1.4054651081081644
heavenly:1.6931471805599454
helens:1.6931471805599454
helicopter:1.6931471805599454
help:1.1823215567939547
hen:1.4054651081081644
henry:1.6931471805599454
her:1.0
herb:1.6931471805599454
herbal:1.4054651081081644
heritage:1.0
hero:1.6931471805599454
heroes:1.6931471805599454
hers:1.6931471805599454
hi:1.1823215567939547
hidden:1.1823215567939547
hide:1.4054651081081644
high:1.0
highland:1.4054651081081644
highlands:2.0986122886681096
highlights:1.0
highway:1.6931471805599454
hike:1.1823215567939547
hiking:1.1823215567939547
hill:1.1823215567939547
hills:1.0
hilton:1.6931471805599454
himalayas:2.0986122886681096
hip:1.0
hire:1.1823215567939547
hiring:1.6931471805599454
historic:1.1823215567939547
historical:1.0
history:1.0
ho:1.0
hobby:1.4054651081081644
hockey:1.4054651081081644
hole:1.1823215567939547
holiday:1.0
holidays:1.1823215567939547
hollywood:1.4054651081081644
holy:1.4054651081081644
home:1.0
homecoming:1.6931471805599454
homeless:1.6931471805599454
homemade:1.6931471805599454
homes:1.0
hometown:1.6931471805599454
homework:1.6931471805599454
honeymoon:1.6931471805599454
hong:1.6931471805599454
honolulu:1.6931471805599454
honor:1.1823215567939547
honoring:2.0986122886681096
honors:1.4054651081081644
hood:1.4054651081081644
hop:1.1823215567939547
hope:1.4054651081081644
hopping:1.4054651081081644
horizon:1.1823215567939547
horror:1.6931471805599454
horse:1.1823215567939547
horseback:1.4054651081081644
hose:2.0986122886681096
hospital:1.1823215567939547
hospitality:1.4054651081081644
host:1.4054651081081644
hostel:1.6931471805599454
hot:1.0
hotel:1.0
hour:1.1823215567939547
hours:1.4054651081081644
house:1.0
household:2.0986122886681096
housing:1.4054651081081644
houston:1.6931471805599454
how:1.6931471805599454
hr:1.4054651081081644
hu:1.4054651081081644
hub:1.0
hudson:1.4054651081081644
human:1.1823215567939547
hunt:1.0
hunters:1.4054651081081644
hunting:1.0
hurricane:1.6931471805599454
hut:1.4054651081081644
hy:1.1823215567939547
hybrid:1.4054651081081644
hydra:1.4054651081081644
hydro:1.4054651081081644
hygiene:1.4054651081081644
i:1.1823215567939547
ib:1.4054651081081644
iberian:1.6931471805599454
ice:1.0
iceland:1.6931471805599454
id:1.4054651081081644
idea:1.4054651081081644
ideas:1.1823215567939547
identity:1.4054651081081644
ie:2.0986122886681096
if:1.1823215567939547
ii:1.1823215567939547
im:1.0
image:1.4054651081081644
imaging:1.6931471805599454
immersion:1.0
imp:1.4054651081081644
impact:1.0
implant:2.0986122886681096
implementation:2.0986122886681096
important:1.0
impression:1.6931471805599454
improve:1.4054651081081644
improvement:1.1823215567939547
improving:1.4054651081081644
in:1.0
inc:1.6931471805599454
inca:2.0986122886681096
incentive:1.4054651081081644
incident:2.0986122886681096
included:1.6931471805599454
inclusion:1.4054651081081644
inclusive:1.4054651081081644
income:1.6931471805599454
ind:1.4054651081081644
independent:1.0
india:1.4054651081081644
indian:1.4054651081081644
indianapolis:1.6931471805599454
indie:1.6931471805599454
indigenous:1.4054651081081644
individual:1.4054651081081644
indonesia:2.0986122886681096
indoor:1.0
industrial:1.4054651081081644
industries:1.6931471805599454
industry:1.1823215567939547
influence:1.1823215567939547
info:1.6931471805599454
inform:1.6931471805599454
informal:1.4054651081081644
information:1.0
infrastructure:1.6931471805599454
ingredients:2.0986122886681096
initial:1.6931471805599454
initiative:1.1823215567939547
initiatives:1.6931471805599454
ink:1.4054651081081644
inn:1.1823215567939547
inner:1.1823215567939547
innovation:1.0
innovations:1.1823215567939547
innovative:1.6931471805599454
inquiry:1.4054651081081644
insight:1.4054651081081644
insights:1.4054651081081644
inspection:1.1823215567939547
inspiration:1.0
inspirational:1.4054651081081644
inspiring:1.1823215567939547
install:2.0986122886681096
installation:1.1823215567939547
installment:2.0986122886681096
institute:1.1823215567939547
instruction:1.6931471805599454
instructions:1.1823215567939547
instructor:1.0
instrument:1.6931471805599454
instruments:2.0986122886681096
insurance:1.1823215567939547
intake:1.6931471805599454
integration:2.0986122886681096
integrity:1.6931471805599454
intellectual:1.6931471805599454
intelligence:1.4054651081081644
intensive:1.4054651081081644
inter:1.1823215567939547
interactive:1.1823215567939547
intercity:2.0986122886681096
interdisciplinary:2.0986122886681096
interior:1.1823215567939547
intermediate:1.1823215567939547
internal:2.0986122886681096
international:1.0
internet:1.4054651081081644
internship:1.4054651081081644
interview:1.4054651081081644
interviews:2.0986122886681096
intimate:1.4054651081081644
into:1.1823215567939547
intro:1.1823215567939547
introduction:1.1823215567939547
introductory:1.4054651081081644
inventory:1.6931471805599454
investing:1.6931471805599454
investment:1.4054651081081644
investor:1.6931471805599454
invitation:1.4054651081081644
io:1.6931471805599454
ir:1.6931471805599454
ireland:1.6931471805599454
irish:1.4054651081081644
iron:1.4054651081081644
is:1.0
islamic:1.4054651081081644
island:1.1823215567939547
islands:1.1823215567939547
isle:1.6931471805599454
isles:2.0986122886681096
israel:1.6931471805599454
issue:1.6931471805599454
issues:1.6931471805599454
istanbul:1.6931471805599454
it:1.0
italian:1.0
italy:1.4054651081081644
item:1.6931471805599454
items:1.4054651081081644
its:1.1823215567939547
ivy:1.6931471805599454
j:1.1823215567939547
ja:1.4054651081081644
jack:1.4054651081081644
jackson:1.4054651081081644
jakarta:2.0986122886681096
jake:1.4054651081081644
jam:1.0
james:1.4054651081081644
jamie:1.6931471805599454
jan:1.1823215567939547
jane:1.4054651081081644
janeiro:1.6931471805599454
japan:1.6931471805599454
japanese:1.1823215567939547
jar:1.4054651081081644
jasmine:2.0986122886681096
jason:1.1823215567939547
java:1.4054651081081644
jazz:1.0
je:1.0
jennifer:1.4054651081081644
jenny:1.6931471805599454
jersey:1.4054651081081644
jerusalem:2.0986122886681096
jess:1.6931471805599454
jessica:1.6931471805599454
jet:1.4054651081081644
jewelry:1.4054651081081644
ji:1.1823215567939547
jim:1.1823215567939547
jo:1.1823215567939547
job:1.1823215567939547
jobs:2.0986122886681096
joe:1.4054651081081644
jogging:1.6931471805599454
johannesburg:1.6931471805599454
john:1.0
johns:1.0
johnson:1.1823215567939547
join:1.0
joint:1.0
jones:1.4054651081081644
jordan:1.6931471805599454
jose:1.1823215567939547
josh:1.6931471805599454
joshua:1.4054651081081644
journal:1.1823215567939547
journalism:1.1823215567939547
journalist:1.6931471805599454
journey:1.0
journeys:1.4054651081081644
joy:1.1823215567939547
juan:1.4054651081081644
judging:1.6931471805599454
juice:1.4054651081081644
julian:1.4054651081081644
julie:1.6931471805599454
july:1.6931471805599454
jumping:1.1823215567939547
jungle:1.4054651081081644
junior:1.4054651081081644
junk:1.4054651081081644
jurassic:1.6931471805599454
justice:1.4054651081081644
justin:1.6931471805599454
k:1.0
ka:1.0
kai:1.4054651081081644
kan:1.4054651081081644
kara:1.1823215567939547
karen:1.6931471805599454
kate:1.6931471805599454
katie:2.0986122886681096
kay:1.1823215567939547
ke:1.4054651081081644
kelly:1.1823215567939547
ken:1.0
kentucky:1.4054651081081644
kenya:1.6931471805599454
kettle:1.6931471805599454
kevin:1.4054651081081644
key:1.0
keynote:1.6931471805599454
keys:1.1823215567939547
ki:1.0
kick:1.4054651081081644
kickoff:1.1823215567939547
kids:1.0
kim:1.4054651081081644
kin:1.4054651081081644
kindergarten:1.6931471805599454
kindness:1.4054651081081644
king:1.6931471805599454
kingdom:1.4054651081081644
kings:1.4054651081081644
kit:1.0
kitchen:1.0
kite:1.1823215567939547
knitting:1.1823215567939547
knot:1.6931471805599454
knowledge:1.1823215567939547
ko:1.1823215567939547
kong:1.6931471805599454
korea:1.4054651081081644
korean:1.1823215567939547
kt:1.6931471805599454
kuala:1.6931471805599454
kyoto:1.6931471805599454
l:1.1823215567939547
la:1.4054651081081644
lab:1.1823215567939547
label:1.6931471805599454
labor:1.1823215567939547
ladder:1.6931471805599454
ladies:1.6931471805599454
lagoon:1.4054651081081644
lake:1.0
lakes:1.4054651081081644
lakeside:1.4054651081081644
lamp:2.0986122886681096
land:1.1823215567939547
landing:1.6931471805599454
landlord:2.0986122886681096
landmark:1.1823215567939547
landscape:1.0
landscapes:1.4054651081081644
landscaping:1.6931471805599454
lane:1.4054651081081644
lang:1.4054651081081644
language:1.0
lanka:2.0986122886681096
lantern:1.1823215567939547
lap:1.6931471805599454
laptop:2.0986122886681096
large:1.1823215567939547
las:1.4054651081081644
laser:1.6931471805599454
lash:2.0986122886681096
last:1.0
late:1.0
latin:1.1823215567939547
laugh:1.6931471805599454
laughter:1.6931471805599454
launch:1.0
laundry:1.6931471805599454
laura:1.6931471805599454
lavender:1.6931471805599454
law:1.1823215567939547
lawn:1.1823215567939547
layout:1.4054651081081644
le:1.4054651081081644
lead:1.4054651081081644
leader:1.4054651081081644
leaders:1.6931471805599454
leadership:1.1823215567939547
leaf:1.1823215567939547
league:1.1823215567939547
leak:2.0986122886681096
leaking:2.0986122886681096
lean:2.0986122886681096
learn:1.4054651081081644
learned:1.6931471805599454
learning:1.1823215567939547
lease:1.6931471805599454
leather:1.4054651081081644
leave:1.4054651081081644
leaves:1.4054651081081644
lecture:1.0
lectures:1.6931471805599454
led:1.4054651081081644
lee:1.1823215567939547
leg:1.1823215567939547
legacy:1.4054651081081644
legal:1.0
legends:1.4054651081081644
lego:1.4054651081081644
leisure:1.1823215567939547
lens:1.1823215567939547
leo:1.1823215567939547
les:1.1823215567939547
lesson:1.0
lessons:1.0
lets:1.6931471805599454
letter:1.4054651081081644
level:2.0986122886681096
lever:2.0986122886681096
li:1.4054651081081644
liam:1.4054651081081644
liberty:1.4054651081081644
library:1.0
license:1.1823215567939547
licensing:2.0986122886681096
life:1.0
lifestyle:1.0
lifetime:1.4054651081081644
lift:1.6931471805599454
light:1.0
lighthouse:1.4054651081081644
lighting:1.0
lights:1.1823215567939547
lily:1.4054651081081644
limited:1.1823215567939547
lincoln:1.4054651081081644
linda:1.4054651081081644
line:1.0
linear:2.0986122886681096
linen:2.0986122886681096
linguistics:2.0986122886681096
lion:1.4054651081081644
lisa:1.6931471805599454
lisbon:1.6931471805599454
list:1.0
listen:1.6931471805599454
listening:1.1823215567939547
literacy:1.1823215567939547
literary:1.0
literature:1.0
little:1.1823215567939547
live:1.0
lives:1.6931471805599454
living:1.0
liz:2.0986122886681096
lo:1.1823215567939547
loan:2.0986122886681096
lobster:1.4054651081081644
local:1.0
location:1.0
lock:1.4054651081081644
locks:1.6931471805599454
lodge:1.4054651081081644
lodging:2.0986122886681096
loft:1.4054651081081644
log:1.0
logan:1.6931471805599454
logistics:1.1823215567939547
loire:2.0986122886681096
london:1.1823215567939547
long:1.0
look:1.0
loose:2.0986122886681096
los:1.1823215567939547
loss:1.4054651081081644
lost:1.1823215567939547
lot:1.6931471805599454
louis:1.4054651081081644
louise:1.4054651081081644
lounge:1.4054651081081644
louvre:1.6931471805599454
love:1.0
loved:1.4054651081081644
lovers:1.0
loving:1.4054651081081644
low:1.1823215567939547
loyalty:1.0
lu:1.0
lucas:1.6931471805599454
lucia:1.4054651081081644
lucy:2.0986122886681096
luggage:1.4054651081081644
luke:1.6931471805599454
lumpur:1.6931471805599454
luna:1.4054651081081644
lunar:1.4054651081081644
lunch:1.0
lush:1.4054651081081644
lux:1.4054651081081644
luxurious:1.4054651081081644
luxury:1.0
ma:1.1823215567939547
mac:1.4054651081081644
mach:2.0986122886681096
machine:1.0
macro:2.0986122886681096
mad:1.6931471805599454
madagascar:1.6931471805599454
madison:1.4054651081081644
madness:1.6931471805599454
madrid:1.6931471805599454
magazine:1.6931471805599454
magic:1.1823215567939547
magical:1.4054651081081644
mail:1.6931471805599454
main:1.0
maine:2.0986122886681096
maintenance:1.1823215567939547
majestic:1.4054651081081644
majors:2.0986122886681096
make:1.0
maker:1.1823215567939547
makers:1.4054651081081644
makeup:1.1823215567939547
making:1.0
mal:1.4054651081081644
malaysia:1.6931471805599454
maldives:1.6931471805599454
malibu:1.6931471805599454
mall:1.0
mammoth:1.6931471805599454
man:1.1823215567939547
manage:1.4054651081081644
management:1.0
manager:1.4054651081081644
managers:2.0986122886681096
managing:1.6931471805599454
manchester:1.4054651081081644
mandarin:1.6931471805599454
mani:2.0986122886681096
mania:1.1823215567939547
manor:1.4054651081081644
mansion:1.4054651081081644
manufacturing:1.6931471805599454
map:1.0
maple:1.1823215567939547
mapping:1.4054651081081644
mar:1.4054651081081644
marathon:1.0
margarita:1.6931471805599454
maria:1.6931471805599454
marina:1.4054651081081644
marine:1.0
maritime:1.1823215567939547
mark:1.4054651081081644
market:1.0
marketing:1.4054651081081644
marketplace:1.1823215567939547
markets:1.4054651081081644
marks:2.0986122886681096
marriage:1.6931471805599454
marriott:2.0986122886681096
martial:1.1823215567939547
marvel:1.1823215567939547
mary:1.4054651081081644
mas:1.4054651081081644
mask:1.1823215567939547
mass:1.4054651081081644
massage:1.4054651081081644
master:1.0
mastering:1.4054651081081644
masters:1.1823215567939547
mat:1.1823215567939547
match:1.0
material:1.6931471805599454
materials:1.1823215567939547
math:1.4054651081081644
mathematics:2.0986122886681096
matt:2.0986122886681096
maturity:2.0986122886681096
maui:1.6931471805599454
mauritius:1.6931471805599454
max:1.1823215567939547
may:1.4054651081081644
maya:1.4054651081081644
mayo:1.6931471805599454
maze:1.4054651081081644
mba:2.0986122886681096
me:1.1823215567939547
meadow:1.1823215567939547
meal:1.1823215567939547
mean:1.6931471805599454
measurement:2.0986122886681096
meat:1.6931471805599454
mechanics:2.0986122886681096
med:1.1823215567939547
media:1.0
medical:1.0
medication:1.6931471805599454
medicine:1.1823215567939547
medieval:1.1823215567939547
meditation:1.0
mediterranean:1.4054651081081644
meet:1.0
meeting:1.0
meetings:1.6931471805599454
megan:2.0986122886681096
melbourne:1.6931471805599454
member:1.1823215567939547
members:1.1823215567939547
membership:1.4054651081081644
memo:1.4054651081081644
memorable:1.4054651081081644
memorial:1.4054651081081644
memories:1.1823215567939547
memory:1.0
memphis:1.4054651081081644
men:1.1823215567939547
mental:1.1823215567939547
mentor:1.1823215567939547
mentoring:1.6931471805599454
menu:1.0
mer:1.1823215567939547
merger:1.6931471805599454
mergers:2.0986122886681096
message:1.6931471805599454
met:2.0986122886681096
metal:1.1823215567939547
method:1.6931471805599454
methodology:2.0986122886681096
methods:1.4054651081081644
metric:1.4054651081081644
metro:1.4054651081081644
metropolitan:1.4054651081081644
mexican:1.4054651081081644
mexico:1.4054651081081644
mia:1.4054651081081644
miami:1.6931471805599454
mic:1.0
michael:1.1823215567939547
michaels:2.0986122886681096
michelle:1.6931471805599454
michigan:1.4054651081081644
micro:1.0
microwave:1.6931471805599454
mid:1.0
midday:1.1823215567939547
middle:1.1823215567939547
midnight:1.0
midsummer:1.6931471805599454
midtown:1.4054651081081644
migration:1.6931471805599454
mike:1.4054651081081644
milan:1.6931471805599454
milestone:1.0
military:1.1823215567939547
mill:1.4054651081081644
mind:1.0
minds:1.1823215567939547
ming:2.0986122886681096
mini:1.1823215567939547
mining:1.4054651081081644
ministry:2.0986122886681096
minnesota:2.0986122886681096
minute:1.0
mis:1.4054651081081644
miss:1.1823215567939547
missing:1.6931471805599454
mission:1.1823215567939547
mississippi:1.6931471805599454
mit:1.1823215567939547
mix:1.1823215567939547
mixed:1.1823215567939547
mixer:1.6931471805599454
mm:1.6931471805599454
mo:1.0
mob:1.6931471805599454
mobile:1.1823215567939547
mobility:1.4054651081081644
mock:1.4054651081081644
model:1.0
modeling:2.0986122886681096
models:1.4054651081081644
modern:1.0
modification:1.4054651081081644
modify:1.6931471805599454
module:2.0986122886681096
mom:1.1823215567939547
moments:1.4054651081081644
mon:1.6931471805599454
money:1.6931471805599454
mongolia:1.6931471805599454
monica:1.4054651081081644
monitor:1.6931471805599454
monitoring:1.1823215567939547
monster:1.4054651081081644
mont:1.1823215567939547
montana:1.4054651081081644
monterey:1.4054651081081644
month:1.0
monthly:1.1823215567939547
montreal:1.6931471805599454
monument:1.6931471805599454
moon:1.4054651081081644
moonlight:1.4054651081081644
more:1.0
mormon:1.6931471805599454
morning:1.0
morocco:2.0986122886681096
mortgage:1.6931471805599454
moscow:1.6931471805599454
motel:1.6931471805599454
mother:1.4054651081081644
mothers:1.4054651081081644
motion:1.0
motivation:1.1823215567939547
motor:1.4054651081081644
motorcycle:1.1823215567939547
mount:1.4054651081081644
mountain:1.0
mountains:1.4054651081081644
move:1.0
movement:1.0
moves:1.4054651081081644
movie:1.0
movies:1.1823215567939547
moving:1.0
mr:1.1823215567939547
mri:2.0986122886681096
mrs:1.4054651081081644
mt:1.1823215567939547
mu:1.1823215567939547
mud:1.4054651081081644
mug:1.6931471805599454
multi:1.0
mumbai:1.6931471805599454
munich:1.6931471805599454
murder:1.6931471805599454
muscle:1.6931471805599454
museum:1.0
museums:1.6931471805599454
music:1.0
musical:1.0
my:1.0
mystery:1.1823215567939547
mystic:1.4054651081081644
mystical:1.6931471805599454
n:1.1823215567939547
na:1.4054651081081644
nail:1.1823215567939547
nails:1.6931471805599454
name:1.0
names:1.0
namibia:2.0986122886681096
nana:2.0986122886681096
nancy:1.6931471805599454
nano:2.0986122886681096
nap:1.4054651081081644
nashville:1.6931471805599454
nathan:2.0986122886681096
national:1.1823215567939547
natural:1.0
nature:1.0
nautical:1.6931471805599454
navigation:1.1823215567939547
nba:1.6931471805599454
ne:1.1823215567939547
near:1.4054651081081644
need:1.4054651081081644
needed:2.0986122886681096
needs:1.4054651081081644
negotiate:1.6931471805599454
negotiating:2.0986122886681096
negotiation:1.6931471805599454
negotiations:2.0986122886681096
neighbor:1.6931471805599454
neighborhood:1.1823215567939547
neighbors:1.6931471805599454
neon:1.1823215567939547
nepal:2.0986122886681096
nest:1.6931471805599454
netflix:1.6931471805599454
netherlands:2.0986122886681096
network:1.1823215567939547
networking:1.0
neuroscience:2.0986122886681096
nevada:1.6931471805599454
new:1.0
newsletter:1.4054651081081644
newspaper:1.6931471805599454
next:1.0
nfl:2.0986122886681096
ni:1.1823215567939547
niagara:1.6931471805599454
nick:1.6931471805599454
niece:1.6931471805599454
night:1.0
nights:1.4054651081081644
nighttime:1.4054651081081644
nile:2.0986122886681096
nina:2.0986122886681096
no:1.0
noah:1.4054651081081644
non:1.0
nonprofit:1.1823215567939547
nora:1.6931471805599454
nordic:1.4054651081081644
north:1.1823215567939547
northern:1.4054651081081644
northwest:1.6931471805599454
norway:1.6931471805599454
norwegian:2.0986122886681096
not:1.1823215567939547
note:1.1823215567939547
notes:1.6931471805599454
notice:1.6931471805599454
notification:1.1823215567939547
novel:1.4054651081081644
now:1.1823215567939547
number:1.1823215567939547
nurse:1.1823215567939547
nursery:2.0986122886681096
nursing:1.1823215567939547
nut:1.4054651081081644
nutrition:1.4054651081081644
nutritional:1.4054651081081644
o:1.0
oak:1.4054651081081644
oasis:1.4054651081081644
ob:1.4054651081081644
objectives:2.0986122886681096
observation:1.0
observatory:1.1823215567939547
occasion:1.4054651081081644
occupational:1.6931471805599454
ocean:1.1823215567939547
oceans:1.0
odyssey:1.4054651081081644
of:1.0
off:1.0
offer:1.0
offers:1.1823215567939547
office:1.0
officer:1.4054651081081644
oil:1.0
ok:1.4054651081081644
oklahoma:1.6931471805599454
old:1.0
olive:1.1823215567939547
oliver:1.6931471805599454
olivia:1.1823215567939547
olympiad:2.0986122886681096
olympic:1.6931471805599454
om:1.4054651081081644
on:1.0
onboard:1.4054651081081644
one:1.0
ones:1.0
online:1.1823215567939547
only:1.1823215567939547
ontario:1.6931471805599454
op:1.1823215567939547
open:1.0
opening:1.1823215567939547
openings:2.0986122886681096
opera:1.4054651081081644
operational:1.6931471805599454
operations:1.6931471805599454
opportunities:1.4054651081081644
opportunity:1.1823215567939547
opt:1.1823215567939547
optimization:1.4054651081081644
options:1.1823215567939547
or:1.0
oral:1.4054651081081644
orchard:1.1823215567939547
orchestra:1.1823215567939547
order:1.4054651081081644
oregon:1.4054651081081644
organic:1.0
organization:1.1823215567939547
organizational:1.4054651081081644
organizations:1.4054651081081644
organize:1.4054651081081644
organizer:1.6931471805599454
organizing:1.1823215567939547
orient:1.1823215567939547
oriental:2.0986122886681096
orientation:1.1823215567939547
orlando:1.6931471805599454
orleans:1.4054651081081644
orthodox:2.0986122886681096
oslo:1.6931471805599454
ot:1.1823215567939547
others:1.4054651081081644
our:1.4054651081081644
out:1.0
outdoor:1.0
outer:1.6931471805599454
outfit:1.4054651081081644
outing:1.0
outline:1.6931471805599454
outreach:1.4054651081081644
outs:1.6931471805599454
outstanding:1.6931471805599454
oven:1.4054651081081644
over:1.0
overnight:1.4054651081081644
overview:1.6931471805599454
owl:1.0
own:1.6931471805599454
oyster:1.6931471805599454
oz:1.4054651081081644
p:1.1823215567939547
pa:1.1823215567939547
pacific:1.6931471805599454
pack:1.1823215567939547
package:1.1823215567939547
packages:1.4054651081081644
packing:1.6931471805599454
pad:1.6931471805599454
paddle:1.1823215567939547
page:1.4054651081081644
paid:1.6931471805599454
pain:1.4054651081081644
paint:1.1823215567939547
painting:1.0
pairing:1.4054651081081644
pal:1.1823215567939547
palace:1.1823215567939547
palaces:2.0986122886681096
palm:1.4054651081081644
pam:1.4054651081081644
pan:1.0
panama:2.0986122886681096
panda:1.6931471805599454
panel:1.1823215567939547
pantry:1.6931471805599454
paper:1.1823215567939547
papers:1.6931471805599454
paperwork:1.4054651081081644
par:1.1823215567939547
para:1.1823215567939547
parade:1.1823215567939547
paradise:1.1823215567939547
parc:1.6931471805599454
parent:1.1823215567939547
parents:1.0
paris:1.1823215567939547
parisian:1.4054651081081644
park:1.0
parking:1.0
parks:1.1823215567939547
parkway:1.6931471805599454
parlor:1.4054651081081644
part:1.0
participate:1.6931471805599454
participation:1.0
partner:1.0
partners:1.4054651081081644
partnership:1.1823215567939547
partnerships:2.0986122886681096
parts:1.6931471805599454
party:1.0
pass:1.0
passes:1.6931471805599454
password:2.0986122886681096
past:1.1823215567939547
pasta:1.1823215567939547
pat:1.6931471805599454
patch:1.4054651081081644
path:1.0
paths:1.1823215567939547
pathways:1.4054651081081644
patient:1.4054651081081644
patio:1.4054651081081644
patrick:1.6931471805599454
paul:1.1823215567939547
pavilion:1.4054651081081644
pay:1.4054651081081644
paying:1.4054651081081644
payment:1.4054651081081644
payments:1.6931471805599454
pc:1.4054651081081644
pe:1.6931471805599454
peace:1.0
peaceful:1.0
peak:1.4054651081081644
peaks:1.4054651081081644
pearl:1.4054651081081644
pediatric:2.0986122886681096
pee:1.6931471805599454
peer:1.6931471805599454
pen:1.0
penetration:1.6931471805599454
peninsula:1.6931471805599454
pension:1.6931471805599454
people:1.0
per:1.0
perfect:1.1823215567939547
perfection:1.4054651081081644
performance:1.0
performing:1.6931471805599454
period:1.1823215567939547
permit:1.4054651081081644
person:1.1823215567939547
personal:1.0
peru:2.0986122886681096
pest:2.0986122886681096
pet:1.0
pete:1.6931471805599454
peter:1.4054651081081644
peters:1.4054651081081644
petra:2.0986122886681096
pets:1.1823215567939547
ph:1.0
phantom:2.0986122886681096
pharmaceutical:1.6931471805599454
pharmacy:1.4054651081081644
philadelphia:1.6931471805599454
philanthropy:1.4054651081081644
philharmonic:1.4054651081081644
philippines:1.6931471805599454
philosophy:1.0
phoenix:1.1823215567939547
phone:1.1823215567939547
photo:1.0
photographer:1.0
photography:1.0
photos:1.0
physical:1.4054651081081644
physics:2.0986122886681096
pi:1.0
piano:1.1823215567939547
pic:1.6931471805599454
picasso:2.0986122886681096
pick:1.4054651081081644
picking:1.1823215567939547
pickup:1.0
picnic:1.0
picture:1.1823215567939547
picturesque:2.0986122886681096
pie:1.4054651081081644
pier:1.4054651081081644
pilgrimage:1.4054651081081644
pillow:1.6931471805599454
pine:1.6931471805599454
ping:1.6931471805599454
pink:1.4054651081081644
pirate:1.4054651081081644
pitch:1.6931471805599454
pittsburgh:1.6931471805599454
pizza:1.1823215567939547
pl:1.1823215567939547
place:1.1823215567939547
placement:1.4054651081081644
plan:1.0
plane:1.4054651081081644
planet:1.4054651081081644
planner:1.0
planning:1.0
plans:1.0
plant:1.1823215567939547
planting:1.4054651081081644
plants:1.6931471805599454
plate:1.4054651081081644
platform:1.1823215567939547
play:1.0
playhouse:1.4054651081081644
plaza:1.4054651081081644
pleasure:1.4054651081081644
po:1.0
podcast:1.4054651081081644
poetry:1.0
point:1.4054651081081644
poker:1.6931471805599454
poland:2.0986122886681096
polar:1.4054651081081644
pole:1.1823215567939547
policies:1.6931471805599454
policy:1.0
polish:1.4054651081081644
political:1.4054651081081644
politics:1.6931471805599454
poly:1.4054651081081644
pond:1.4054651081081644
pool:1.1823215567939547
pools:1.6931471805599454
pop:1.1823215567939547
popcorn:1.4054651081081644
porch:1.6931471805599454
port:1.6931471805599454
portal:1.4054651081081644
portfolio:1.1823215567939547
portland:1.4054651081081644
portrait:1.1823215567939547
portugal:2.0986122886681096
position:2.0986122886681096
positioning:1.6931471805599454
positions:2.0986122886681096
positive:1.0
post:1.0
poster:1.4054651081081644
posts:1.4054651081081644
pot:1.0
potential:1.1823215567939547
potter:1.4054651081081644
pottery:1.0
powder:1.4054651081081644
power:1.0
pp:1.4054651081081644
pr:1.1823215567939547
practice:1.0
practices:1.1823215567939547
practitioner:1.6931471805599454
prague:1.6931471805599454
prayer:2.0986122886681096
pre:1.0
precision:1.6931471805599454
predict:2.0986122886681096
preliminary:1.6931471805599454
prem:1.4054651081081644
premier:2.0986122886681096
premiere:1.6931471805599454
premium:1.4054651081081644
prep:1.0
preparation:1.1823215567939547
preparations:1.4054651081081644
prepare:1.0
prepared:1.4054651081081644
preparing:1.4054651081081644
prescription:1.6931471805599454
present:1.1823215567939547
presentation:1.0
presentations:1.4054651081081644
preservation:1.0
preserve:1.1823215567939547
press:1.4054651081081644
pressure:1.6931471805599454
prevent:1.4054651081081644
prevention:1.1823215567939547
preview:1.1823215567939547
price:1.1823215567939547
prices:1.6931471805599454
pricing:1.6931471805599454
pride:1.6931471805599454
principles:1.6931471805599454
print:1.0
printer:2.0986122886681096
printing:1.1823215567939547
prints:1.6931471805599454
prior:1.6931471805599454
priority:1.4054651081081644
privacy:1.6931471805599454
private:1.0
pro:1.0
problem:1.4054651081081644
problems:1.6931471805599454
procedure:1.4054651081081644
procedures:1.6931471805599454
process:1.1823215567939547
processes:2.0986122886681096
processing:1.6931471805599454
procession:2.0986122886681096
procurement:1.6931471805599454
produce:1.6931471805599454
product:1.0
production:1.1823215567939547
productivity:1.4054651081081644
products:1.4054651081081644
professional:1.0
professionals:1.4054651081081644
professor:1.4054651081081644
professors:2.0986122886681096
program:1.0
programming:1.6931471805599454
programs:1.1823215567939547
progress:1.1823215567939547
project:1.0
projects:1.1823215567939547
prom:1.1823215567939547
promotion:1.0
proof:1.6931471805599454
property:1.1823215567939547
proposal:1.0
protecting:1.4054651081081644
protection:1.1823215567939547
protocol:2.0986122886681096
provence:2.0986122886681096
provide:1.6931471805599454
psychiatrist:2.0986122886681096
psycho:1.6931471805599454
psychological:1.6931471805599454
psychologist:1.6931471805599454
psychology:1.6931471805599454
pt:1.4054651081081644
pu:1.1823215567939547
pub:1.4054651081081644
public:1.0
publication:2.0986122886681096
publishing:1.4054651081081644
pumpkin:1.1823215567939547
puppet:1.6931471805599454
purchase:1.1823215567939547
pure:1.4054651081081644
puzzle:1.1823215567939547
pyramid:1.6931471805599454
pyrenees:2.0986122886681096
python:2.0986122886681096
q:1.0
qu:1.4054651081081644
quality:1.4054651081081644
quantitative:2.0986122886681096
quantum:2.0986122886681096
quarterly:1.1823215567939547
quebec:1.6931471805599454
queen:1.4054651081081644
quest:1.6931471805599454
question:1.6931471805599454
questions:1.4054651081081644
qui:1.6931471805599454
quick:1.1823215567939547
quiet:1.0
quilt:1.4054651081081644
quiz:1.4054651081081644
quote:2.0986122886681096
r:1.1823215567939547
ra:1.1823215567939547
race:1.0
rachel:1.4054651081081644
racing:1.1823215567939547
rack:1.6931471805599454
radiant:1.4054651081081644
radio:1.0
raf:1.4054651081081644
raft:1.4054651081081644
rail:1.4054651081081644
railing:2.0986122886681096
railway:1.4054651081081644
rain:1.1823215567939547
rainbow:1.6931471805599454
rainforest:1.1823215567939547
raise:1.6931471805599454
rally:1.0
ram:1.4054651081081644
ranch:1.1823215567939547
range:1.1823215567939547
rate:1.4054651081081644
rd:1.4054651081081644
re:1.0
reach:1.1823215567939547
read:1.4054651081081644
readiness:2.0986122886681096
reading:1.0
readings:1.4054651081081644
ready:1.0
real:1.0
reality:1.0
rear:2.0986122886681096
rec:1.0
receipt:1.6931471805599454
receive:1.4054651081081644
reception:1.1823215567939547
recipe:1.4054651081081644
recipes:1.6931471805599454
recital:1.1823215567939547
recognition:1.6931471805599454
recommendations:1.1823215567939547
reconciliation:1.6931471805599454
record:1.1823215567939547
recording:1.0
records:1.6931471805599454
recovery:1.4054651081081644
recruit:1.6931471805599454
recruitment:1.1823215567939547
recurring:2.0986122886681096
recycling:1.4054651081081644
red:1.0
redesign:1.4054651081081644
reduction:1.4054651081081644
redwood:1.6931471805599454
reef:1.4054651081081644
reefs:2.0986122886681096
ref:1.0
refer:1.4054651081081644
reflect:1.4054651081081644
reflection:1.0
reflections:1.6931471805599454
reflex:1.4054651081081644
reform:1.6931471805599454
reformer:1.6931471805599454
refrigerator:2.0986122886681096
regarding:1.4054651081081644
regime:2.0986122886681096
regional:1.1823215567939547
register:1.4054651081081644
registration:1.0
regular:1.4054651081081644
regulations:1.6931471805599454
regulatory:1.6931471805599454
rehabilitation:1.4054651081081644
rehearsal:1.1823215567939547
rei:1.0
reissue:2.0986122886681096
relations:1.1823215567939547
relationship:1.1823215567939547
relationships:1.4054651081081644
relatives:1.4054651081081644
relax:1.1823215567939547
relaxation:1.0
relaxing:1.1823215567939547
release:1.0
relief:1.1823215567939547
religious:1.0
relocation:1.1823215567939547
remember:1.1823215567939547
remembering:1.6931471805599454
remembrance:2.0986122886681096
reminder:1.0
remote:1.0
removal:1.6931471805599454
renaissance:1.1823215567939547
rendezvous:1.4054651081081644
renew:1.0
renewable:1.1823215567939547
renewal:1.0
renovation:1.1823215567939547
rent:1.4054651081081644
rental:1.1823215567939547
rep:1.0
repair:1.1823215567939547
repaired:2.0986122886681096
repairs:2.0986122886681096
repay:2.0986122886681096
replace:1.6931471805599454
replacement:1.6931471805599454
report:1.1823215567939547
reporting:1.6931471805599454
reports:1.6931471805599454
republic:1.4054651081081644
reputation:1.6931471805599454
request:1.1823215567939547
required:1.4054651081081644
requirements:1.6931471805599454
res:1.0
rescue:1.1823215567939547
research:1.0
reservation:1.1823215567939547
reservations:1.6931471805599454
reserve:1.4054651081081644
reserved:1.4054651081081644
reset:1.6931471805599454
resolution:1.4054651081081644
resort:1.4054651081081644
resource:1.4054651081081644
resources:1.4054651081081644
respond:1.6931471805599454
response:1.6931471805599454
responsibility:1.4054651081081644
responsible:1.1823215567939547
rest:1.0
restaurant:1.0
restoration:1.0
restore:1.6931471805599454
restructuring:1.6931471805599454
results:1.4054651081081644
resume:1.6931471805599454
retail:1.4054651081081644
retention:1.6931471805599454
retirement:1.0
retreat:1.0
retrieve:1.6931471805599454
retro:1.1823215567939547
retrospective:1.4054651081081644
return:1.0
returning:1.4054651081081644
reunion:1.0
rev:1.0
revenue:1.6931471805599454
review:1.0
revision:1.6931471805599454
revival:1.1823215567939547
revolution:1.1823215567939547
rhythm:1.6931471805599454
ri:1.1823215567939547
rica:1.6931471805599454
rice:1.4054651081081644
rick:1.6931471805599454
ride:1.1823215567939547
rides:1.1823215567939547
ridge:1.4054651081081644
riding:1.1823215567939547
rights:1.4054651081081644
riley:2.0986122886681096
ring:1.0
rink:1.4054651081081644
rio:1.4054651081081644
risk:1.4054651081081644
ritual:1.4054651081081644
river:1.1823215567939547
rivers:1.4054651081081644
riverside:1.1823215567939547
ro:1.6931471805599454
road:1.0
roam:2.0986122886681096
roaming:2.0986122886681096
roaring:2.0986122886681096
roast:1.1823215567939547
robotics:1.1823215567939547
rock:1.0
rockies:1.6931471805599454
rocks:1.0
rocky:1.1823215567939547
rod:1.4054651081081644
role:1.6931471805599454
roles:2.0986122886681096
roll:1.0
roller:1.0
rolling:1.4054651081081644
romance:1.1823215567939547
romantic:1.1823215567939547
rome:1.6931471805599454
ron:1.6931471805599454
roof:1.4054651081081644
rooftop:1.1823215567939547
room:1.1823215567939547
root:1.4054651081081644
rosary:2.0986122886681096
rose:1.6931471805599454
rotation:1.6931471805599454
round:1.1823215567939547
route:1.1823215567939547
routine:1.4054651081081644
rowing:1.4054651081081644
royal:1.4054651081081644
rs:1.1823215567939547
rub:1.6931471805599454
rug:2.0986122886681096
rugby:1.4054651081081644
ruins:1.4054651081081644
rum:1.1823215567939547
run:1.0
running:1.0
rural:1.0
rush:1.4054651081081644
russia:2.0986122886681096
rustic:1.1823215567939547
rv:1.1823215567939547
ryan:2.0986122886681096
s:1.4054651081081644
sa:1.0
sabbath:1.6931471805599454
sacred:1.1823215567939547
safari:1.4054651081081644
safe:1.1823215567939547
safety:1.0
sahara:1.6931471805599454
sail:1.4054651081081644
sailing:1.0
saint:1.4054651081081644
salary:2.0986122886681096
sale:1.0
sales:1.0
sally:1.6931471805599454
salon:1.6931471805599454
salsa:1.6931471805599454
salt:1.4054651081081644
sam:1.1823215567939547
samantha:1.6931471805599454
san:1.0
sanctuary:1.1823215567939547
sand:1.4054651081081644
sands:1.6931471805599454
sandwich:1.4054651081081644
santa:1.1823215567939547
santiago:2.0986122886681096
santo:1.4054651081081644
sara:1.6931471805599454
sarah:1.0
sat:2.0986122886681096
satisfaction:1.1823215567939547
saturday:1.1823215567939547
savannah:1.4054651081081644
save:1.6931471805599454
savings:2.0986122886681096
saw:1.6931471805599454
sc:1.0
scalp:2.0986122886681096
scan:1.6931471805599454
scandinavian:1.4054651081081644
scene:1.1823215567939547
scenic:1.4054651081081644
scented:1.6931471805599454
sch:1.1823215567939547
schedule:1.0
scheduled:1.4054651081081644
scheduling:1.1823215567939547
scholarship:1.4054651081081644
school:1.0
schools:1.1823215567939547
sci:1.1823215567939547
science:1.0
sciences:1.4054651081081644
scientific:1.6931471805599454
scientist:1.6931471805599454
score:1.4054651081081644
scotland:1.6931471805599454
scott:1.6931471805599454
scottish:1.4054651081081644
scrap:1.6931471805599454
screen:1.1823215567939547
screening:1.0
scrub:1.6931471805599454
scuba:1.1823215567939547
sculpture:1.0
se:1.0
sea:1.1823215567939547
seafood:1.1823215567939547
seal:1.4054651081081644
search:1.0
seas:1.6931471805599454
seaside:1.1823215567939547
season:1.0
seasonal:1.0
seasons:1.4054651081081644
seat:1.1823215567939547
seating:1.4054651081081644
seats:1.4054651081081644
seattle:1.4054651081081644
secluded:1.6931471805599454
second:1.1823215567939547
secret:1.4054651081081644
sector:2.0986122886681096
secure:1.4054651081081644
security:1.0
see:1.0
seeds:2.0986122886681096
seek:1.1823215567939547
seekers:1.1823215567939547
segment:2.0986122886681096
selection:1.0
self:1.0
sell:1.6931471805599454
semester:1.6931471805599454
seminar:1.0
send:1.1823215567939547
senior:1.0
seniors:1.1823215567939547
seo:1.1823215567939547
seoul:1.4054651081081644
ser:1.4054651081081644
serene:1.4054651081081644
series:1.0
service:1.0
services:1.0
session:1.0
sessions:1.1823215567939547
set:1.0
setting:1.0
setup:1.0
sewing:1.1823215567939547
seychelles:1.6931471805599454
sf:1.6931471805599454
sh:1.1823215567939547
sha:1.0
shack:1.4054651081081644
shadow:1.0
shakespeare:1.1823215567939547
shanghai:1.6931471805599454
shape:1.6931471805599454
shaping:2.0986122886681096
share:1.0
shared:1.0
sharing:1.0
shark:1.6931471805599454
shave:1.6931471805599454
she:1.0
shed:1.4054651081081644
shelter:1.1823215567939547
shelves:2.0986122886681096
shen:1.4054651081081644
shift:1.1823215567939547
shin:1.1823215567939547
shine:1.6931471805599454
ship:1.4054651081081644
shipping:1.1823215567939547
shoe:1.6931471805599454
shoes:1.6931471805599454
shoot:1.0
shop:1.0
shopping:1.0
shore:1.4054651081081644
shores:1.4054651081081644
short:1.0
shot:1.6931471805599454
show:1.0
showcase:1.1823215567939547
shower:1.1823215567939547
showing:1.6931471805599454
shows:1.4054651081081644
shuttle:2.0986122886681096
si:1.4054651081081644
siblings:1.4054651081081644
side:1.0
sierra:1.4054651081081644
sights:1.1823215567939547
sigma:2.0986122886681096
sign:1.0
signature:1.1823215567939547
signing:1.1823215567939547
silent:1.0
silk:1.4054651081081644
silver:1.1823215567939547
simulation:1.4054651081081644
sing:1.6931471805599454
singapore:1.6931471805599454
singles:2.0986122886681096
sink:2.0986122886681096
sip:1.4054651081081644
sister:1.6931471805599454
sisters:1.4054651081081644
site:1.0
sites:1.1823215567939547
six:1.1823215567939547
skate:1.4054651081081644
skating:1.0
sketch:1.1823215567939547
ski:1.0
skiing:1.1823215567939547
skill:1.1823215567939547
skills:1.0
skin:1.6931471805599454
sky:1.0
skyline:1.4054651081081644
sl:1.0
slam:1.0
sleep:1.0
slides:1.1823215567939547
slopes:1.6931471805599454
slot:1.4054651081081644
slovenia:2.0986122886681096
sm:1.1823215567939547
small:1.0
smart:1.1823215567939547
smile:1.6931471805599454
smiles:1.6931471805599454
smith:1.0
smithsonian:1.6931471805599454
smoky:1.4054651081081644
smooth:1.4054651081081644
sn:1.0
snack:1.1823215567939547
snacks:1.4054651081081644
snow:1.1823215567939547
snowy:1.4054651081081644
so:1.0
soap:1.4054651081081644
soccer:1.1823215567939547
social:1.0
society:1.1823215567939547
sociology:1.6931471805599454
softball:2.0986122886681096
software:1.1823215567939547
sol:1.4054651081081644
solar:1.1823215567939547
sole:1.4054651081081644
solo:1.1823215567939547
solutions:1.0
solving:1.4054651081081644
some:1.1823215567939547
someone:1.4054651081081644
son:1.1823215567939547
song:1.1823215567939547
soothing:1.4054651081081644
sophia:1.1823215567939547
sophie:1.6931471805599454
sort:2.0986122886681096
soul:1.4054651081081644
souls:1.6931471805599454
sound:1.0
soup:1.6931471805599454
sour:1.4054651081081644
south:1.1823215567939547
southern:1.4054651081081644
southwest:1.6931471805599454
sp:1.0
spa:1.1823215567939547
space:1.0
spaces:1.1823215567939547
spain:1.6931471805599454
spanish:1.1823215567939547
speak:1.4054651081081644
speaker:1.4054651081081644
speaking:1.0
special:1.0
specialist:1.6931471805599454
specialists:1.6931471805599454
specific:1.0
spectacular:1.1823215567939547
speech:1.1823215567939547
speed:1.4054651081081644
spend:1.4054651081081644
spending:1.4054651081081644
spice:1.1823215567939547
spin:1.4054651081081644
spine:2.0986122886681096
spirit:1.0
spiritual:1.0
splash:1.4054651081081644
sponsorship:2.0986122886681096
spontaneous:1.4054651081081644
sporting:1.1823215567939547
sports:1.0
spot:1.0
spotlight:1.4054651081081644
spotting:2.0986122886681096
spring:1.0
springs:1.1823215567939547
sprint:1.6931471805599454
squad:1.4054651081081644
square:1.1823215567939547
squeak:2.0986122886681096
sr:1.4054651081081644
sri:1.6931471805599454
st:1.0
stadium:1.1823215567939547
staff:1.4054651081081644
stage:1.4054651081081644
stair:2.0986122886681096
stake:1.4054651081081644
stakeholders:2.0986122886681096
stand:1.0
standards:1.6931471805599454
star:1.0
starr:1.6931471805599454
stars:1.1823215567939547
start:1.0
starting:1.4054651081081644
starts:1.1823215567939547
startup:1.4054651081081644
state:1.0
statement:1.6931471805599454
station:1.1823215567939547
statistical:2.0986122886681096
statistics:2.0986122886681096
status:1.4054651081081644
stay:1.0
steak:1.6931471805599454
steam:1.0
stem:1.6931471805599454
step:1.4054651081081644
steps:1.1823215567939547
steve:1.4054651081081644
stock:1.4054651081081644
stockholm:1.6931471805599454
stone:1.0
stones:1.4054651081081644
stop:1.1823215567939547
storage:1.1823215567939547
store:1.1823215567939547
stories:1.0
story:1.0
storytelling:1.0
stove:2.0986122886681096
straightening:2.0986122886681096
strategic:1.6931471805599454
strategies:1.1823215567939547
strategy:1.1823215567939547
stream:1.0
streaming:1.4054651081081644
street:1.0
streets:1.6931471805599454
strength:1.4054651081081644
strengthen:1.0
strengthening:1.1823215567939547
stress:1.1823215567939547
stretch:1.4054651081081644
stretching:1.6931471805599454
stroll:1.1823215567939547
strong:1.4054651081081644
structure:1.6931471805599454
stuck:2.0986122886681096
student:1.1823215567939547
students:1.1823215567939547
studies:1.4054651081081644
studio:1.0
studios:1.1823215567939547
study:1.0
studying:2.0986122886681096
style:1.0
styles:1.1823215567939547
styling:1.6931471805599454
su:1.0
subject:2.0986122886681096
submission:1.6931471805599454
submit:1.6931471805599454
subscription:1.4054651081081644
success:1.4054651081081644
successful:1.1823215567939547
succession:2.0986122886681096
sue:2.0986122886681096
sugar:1.1823215567939547
suit:1.1823215567939547
suite:1.6931471805599454
sum:1.0
summary:1.4054651081081644
summer:1.0
summit:1.1823215567939547
sun:1.1823215567939547
sunday:1.0
sunny:1.4054651081081644
sunrise:1.1823215567939547
sunset:1.1823215567939547
sunshine:1.4054651081081644
super:1.1823215567939547
superhero:1.4054651081081644
supervisor:2.0986122886681096
supper:1.6931471805599454
supplement:1.6931471805599454
supplements:2.0986122886681096
supplier:1.4054651081081644
supplies:1.4054651081081644
supply:1.4054651081081644
support:1.1823215567939547
supporting:1.4054651081081644
sur:1.6931471805599454
surf:1.4054651081081644
surfing:1.1823215567939547
surgery:2.0986122886681096
surprise:1.1823215567939547
survey:1.4054651081081644
survival:1.1823215567939547
susan:1.6931471805599454
sustainability:1.0
sustainable:1.0
sw:1.4054651081081644
swan:1.6931471805599454
swap:1.0
sweater:1.6931471805599454
sweden:1.6931471805599454
swedish:1.4054651081081644
sweep:2.0986122886681096
sweet:1.1823215567939547
swim:1.0
swimming:1.0
swing:1.1823215567939547
swiss:1.6931471805599454
switzerland:1.6931471805599454
sy:1.1823215567939547
sydney:1.4054651081081644
symphony:1.4054651081081644
symposium:1.1823215567939547
syn:1.4054651081081644
sync:1.6931471805599454
system:1.1823215567939547
systems:1.6931471805599454
t:1.0
ta:1.0
table:1.0
tablet:1.4054651081081644
tackle:1.4054651081081644
tactics:1.4054651081081644
tag:1.4054651081081644
tai:1.1823215567939547
tail:1.6931471805599454
tailor:1.6931471805599454
take:1.0
taking:1.1823215567939547
tale:1.4054651081081644
talent:1.1823215567939547
tales:1.4054651081081644
talk:1.0
tampa:1.6931471805599454
tan:1.4054651081081644
tango:1.4054651081081644
tank:1.1823215567939547
tanzania:2.0986122886681096
tap:1.1823215567939547
tar:1.1823215567939547
target:1.6931471805599454
task:1.4054651081081644
tasks:1.4054651081081644
tasmania:2.0986122886681096
taste:1.1823215567939547
tasting:1.0
tattoo:1.4054651081081644
tavern:1.6931471805599454
tax:1.6931471805599454
taxes:2.0986122886681096
taxi:1.6931471805599454
taylor:1.4054651081081644
te:1.4054651081081644
tea:1.0
teacher:1.1823215567939547
teachers:1.4054651081081644
teaching:1.1823215567939547
team:1.0
teams:1.6931471805599454
tech:1.0
technical:1.4054651081081644
technician:1.4054651081081644
techniques:1.0
technologies:1.6931471805599454
technology:1.0
tee:1.4054651081081644
teen:1.0
teens:1.0
teeth:1.6931471805599454
tel:1.1823215567939547
telecom:1.6931471805599454
telecommunications:1.6931471805599454
television:1.0
template:1.6931471805599454
temple:1.4054651081081644
temples:2.0986122886681096
tennis:1.4054651081081644
tent:1.4054651081081644
term:1.1823215567939547
termination:1.6931471805599454
terms:1.4054651081081644
terra:1.4054651081081644
terrace:1.1823215567939547
terre:2.0986122886681096
test:1.1823215567939547
testing:1.4054651081081644
texas:1.1823215567939547
text:1.6931471805599454
textbook:1.6931471805599454
textile:1.1823215567939547
th:1.0
thai:1.4054651081081644
thailand:1.6931471805599454
thank:1.1823215567939547
thanksgiving:1.1823215567939547
that:1.0
the:1.0
theater:1.0
theatre:1.0
theme:1.0
themed:1.1823215567939547
then:1.6931471805599454
theology:1.6931471805599454
theory:1.6931471805599454
therapeutic:1.4054651081081644
therapist:1.4054651081081644
therapy:1.0
thesis:1.6931471805599454
thinking:2.0986122886681096
this:1.0
thomas:1.4054651081081644
thought:1.6931471805599454
thread:1.4054651081081644
three:1.0
thrill:1.4054651081081644
thriller:1.4054651081081644
thrilling:1.6931471805599454
through:1.0
throw:1.6931471805599454
thursday:1.6931471805599454
ti:1.4054651081081644
ticket:1.1823215567939547
tickets:1.6931471805599454
tidy:1.6931471805599454
tie:1.4054651081081644
tighten:2.0986122886681096
tile:1.6931471805599454
tiles:2.0986122886681096
tim:1.4054651081081644
time:1.0
timeless:1.1823215567939547
timeline:1.1823215567939547
times:1.0
tin:1.1823215567939547
tina:1.4054651081081644
tips:1.0
tire:1.6931471805599454
tissue:2.0986122886681096
title:1.0
to:1.0
toast:1.1823215567939547
today:1.4054651081081644
toe:2.0986122886681096
together:1.0
toilet:1.4054651081081644
tokyo:1.4054651081081644
tom:1.4054651081081644
tomorrow:1.0
tone:1.6931471805599454
tony:1.4054651081081644
tool:1.6931471805599454
tools:1.4054651081081644
tooth:1.4054651081081644
top:1.0
topic:1.6931471805599454
topics:1.6931471805599454
torn:2.0986122886681096
toronto:1.6931471805599454
total:1.6931471805599454
touch:1.1823215567939547
tour:1.0
touring:2.0986122886681096
tourism:1.1823215567939547
tournament:1.0
tours:1.1823215567939547
tower:1.4054651081081644
towers:1.4054651081081644
town:1.0
toy:1.4054651081081644
toys:2.0986122886681096
tr:1.1823215567939547
trace:2.0986122886681096
track:1.0
tracker:2.0986122886681096
tracking:1.0
trade:1.0
tradition:1.4054651081081644
traditional:1.0
traditions:1.1823215567939547
trail:1.1823215567939547
trails:1.1823215567939547
train:1.0
trainer:1.4054651081081644
training:1.0
tram:1.4054651081081644
tran:1.4054651081081644
trans:1.1823215567939547
transaction:1.6931471805599454
transfer:1.1823215567939547
transform:1.1823215567939547
transformation:1.1823215567939547
transition:1.6931471805599454
transport:1.4054651081081644
transportation:1.1823215567939547
trash:2.0986122886681096
trauma:1.6931471805599454
travel:1.0
travelers:1.1823215567939547
traveling:1.6931471805599454
tread:2.0986122886681096
treasure:1.4054651081081644
treasures:1.1823215567939547
treatment:1.4054651081081644
treats:1.4054651081081644
tree:1.0
trek:1.1823215567939547
trend:1.0
trends:1.4054651081081644
tri:1.0
trial:1.1823215567939547
tribute:1.6931471805599454
tricks:1.1823215567939547
trim:1.4054651081081644
trip:1.0
tropical:1.1823215567939547
troubles:1.6931471805599454
truck:1.1823215567939547
trust:1.4054651081081644
try:1.1823215567939547
tu:1.1823215567939547
tub:1.1823215567939547
tuesday:1.1823215567939547
tuition:1.6931471805599454
turkey:1.6931471805599454
turkish:1.6931471805599454
turn:1.6931471805599454
tuscany:1.6931471805599454
tutor:1.1823215567939547
tv:1.4054651081081644
twilight:1.4054651081081644
twist:1.1823215567939547
two:1.0
u:1.1823215567939547
ui:1.6931471805599454
uk:1.1823215567939547
ultimate:1.0
un:1.0
uncle:1.1823215567939547
under:1.0
undergraduate:1.6931471805599454
underground:1.4054651081081644
understanding:1.4054651081081644
underwater:1.4054651081081644
union:1.1823215567939547
unique:1.0
unit:1.4054651081081644
united:1.4054651081081644
unity:1.4054651081081644
universal:1.1823215567939547
universe:1.4054651081081644
university:1.0
up:1.0
upcoming:1.0
update:1.1823215567939547
updates:1.6931471805599454
upgrade:1.4054651081081644
upper:1.4054651081081644
ur:1.6931471805599454
urban:1.0
urgent:1.1823215567939547
us:1.0
usa:1.6931471805599454
use:1.6931471805599454
used:1.6931471805599454
user:2.0986122886681096
using:1.4054651081081644
utah:1.6931471805599454
utilities:2.0986122886681096
utility:2.0986122886681096
v:1.0
va:1.0
vacation:1.1823215567939547
vaccine:1.4054651081081644
vacuum:2.0986122886681096
valencia:2.0986122886681096
valentine:1.4054651081081644
valley:1.1823215567939547
value:1.1823215567939547
values:1.4054651081081644
van:1.4054651081081644
vancouver:1.4054651081081644
vatican:1.4054651081081644
ve:1.1823215567939547
vega:1.1823215567939547
vegas:1.4054651081081644
vegetable:1.6931471805599454
vegetarian:1.4054651081081644
vehicle:1.4054651081081644
vendor:1.1823215567939547
venice:1.6931471805599454
vent:2.0986122886681096
venture:1.4054651081081644
venue:1.0
verification:1.4054651081081644
verify:1.4054651081081644
vermont:1.6931471805599454
vet:1.4054651081081644
veterans:1.1823215567939547
veterinary:1.1823215567939547
vi:1.6931471805599454
via:1.0
vibe:1.1823215567939547
vibrant:1.4054651081081644
victoria:1.4054651081081644
video:1.0
vienna:1.4054651081081644
vietnam:1.4054651081081644
vietnamese:1.4054651081081644
view:1.0
viewing:1.4054651081081644
views:1.6931471805599454
viking:1.4054651081081644
villa:1.1823215567939547
village:1.4054651081081644
villages:2.0986122886681096
vin:1.1823215567939547
vincent:1.4054651081081644
vineyard:1.4054651081081644
vineyards:1.4054651081081644
vintage:1.1823215567939547
vinyl:1.4054651081081644
vip:1.1823215567939547
virgin:1.6931471805599454
virginia:1.4054651081081644
virtual:1.0
visa:1.4054651081081644
vision:1.0
visit:1.0
visiting:1.0
visual:1.1823215567939547
vitamin:2.0986122886681096
vo:1.4054651081081644
vocal:1.4054651081081644
voice:1.1823215567939547
volcanic:1.6931471805599454
volcano:2.0986122886681096
volcanoes:2.0986122886681096
volleyball:1.1823215567939547
volunteer:1.0
volunteers:1.4054651081081644
vote:1.6931471805599454
voter:2.0986122886681096
vows:1.6931471805599454
voyage:1.4054651081081644
vr:1.1823215567939547
vs:1.0
w:1.4054651081081644
wa:1.1823215567939547
wai:1.4054651081081644
wales:2.0986122886681096
walk:1.0
walking:1.1823215567939547
walks:1.4054651081081644
wall:1.0
wallet:1.6931471805599454
walls:2.0986122886681096
wander:1.4054651081081644
want:1.6931471805599454
war:1.1823215567939547
wardrobe:1.6931471805599454
warehouse:1.4054651081081644
warm:1.1823215567939547
warner:1.6931471805599454
warrant:1.4054651081081644
warriors:1.4054651081081644
wars:1.6931471805599454
warsaw:1.4054651081081644
wash:1.4054651081081644
washing:1.4054651081081644
washington:1.4054651081081644
waste:1.4054651081081644
wat:2.0986122886681096
watch:1.0
watching:1.0
water:1.0
waterfall:1.1823215567939547
waterfalls:2.0986122886681096
waterfront:1.1823215567939547
watering:1.6931471805599454
waters:1.1823215567939547
waterways:2.0986122886681096
wave:1.4054651081081644
waves:1.1823215567939547
wax:1.4054651081081644
way:1.4054651081081644
we:1.0
weather:1.6931471805599454
weaving:1.1823215567939547
web:1.0
webb:2.0986122886681096
website:1.4054651081081644
wedding:1.1823215567939547
wednesday:1.6931471805599454
weed:2.0986122886681096
week:1.0
weekday:1.4054651081081644
weekend:1.0
weekly:1.1823215567939547
weight:1.4054651081081644
weightlifting:1.4054651081081644
welcome:1.4054651081081644
well:1.0
wellington:2.0986122886681096
wellness:1.0
welsh:1.6931471805599454
west:1.1823215567939547
western:1.1823215567939547
wet:2.0986122886681096
wh:1.1823215567939547
whale:1.4054651081081644
what:1.4054651081081644
wheel:1.1823215567939547
while:1.1823215567939547
whistle:1.6931471805599454
white:1.0
who:1.4054651081081644
wi:1.1823215567939547
wicked:2.0986122886681096
wild:1.1823215567939547
wilderness:1.1823215567939547
wildlife:1.0
will:1.1823215567939547
williams:1.4054651081081644
willow:1.4054651081081644
wimbledon:2.0986122886681096
wind:1.0
windmill:1.4054651081081644
window:1.1823215567939547
windows:2.0986122886681096
wine:1.1823215567939547
winery:1.4054651081081644
winter:1.0
wipe:2.0986122886681096
wisdom:1.6931471805599454
wishes:2.0986122886681096
with:1.0
wizard:1.4054651081081644
wo:1.1823215567939547
women:1.0
wonder:1.4054651081081644
wonderland:1.1823215567939547
wonders:1.0
wood:1.1823215567939547
wooden:2.0986122886681096
woodland:1.4054651081081644
woods:1.1823215567939547
word:1.6931471805599454
work:1.0
workers:1.4054651081081644
workforce:1.6931471805599454
working:1.1823215567939547
workout:1.4054651081081644
workplace:1.4054651081081644
works:1.1823215567939547
workshop:1.0
workshops:1.1823215567939547
world:1.0
worlds:1.1823215567939547
worn:2.0986122886681096
worship:2.0986122886681096
worth:1.4054651081081644
wrap:1.1823215567939547
wrapping:1.6931471805599454
wrestling:1.6931471805599454
write:1.6931471805599454
writers:1.4054651081081644
writing:1.0
x:1.0
y:1.1823215567939547
ya:1.4054651081081644
yacht:1.4054651081081644
yard:1.1823215567939547
yarn:1.4054651081081644
year:1.0
yearbook:1.6931471805599454
years:1.0
yellowstone:1.6931471805599454
yo:1.4054651081081644
yoga:1.0
york:1.1823215567939547
you:1.0
young:1.1823215567939547
your:1.0
yourself:1.4054651081081644
youth:1.0
yu:1.4054651081081644
z:1.1823215567939547
za:1.1823215567939547
zealand:1.6931471805599454
zen:1.1823215567939547
zero:1.6931471805599454
zion:1.6931471805599454
zip:1.4054651081081644
zoe:2.0986122886681096
zone:1.1823215567939547
zoo:1.0
zoom:1.0
zu:1.1823215567939547
zurich:1.6931471805599454
가:1.0
가게:1.1823215567939547
가격:1.1823215567939547
가계부:2.0986122886681096
가구:1.1823215567939547
가까운:1.4054651081081644
가꾸:1.6931471805599454
가나:1.6931471805599454
가능:1.0
가드:1.4054651081081644
가득:1.1823215567939547
가든:1.1823215567939547
가로수길:1.4054651081081644
가방:1.1823215567939547
가벼운:1.4054651081081644
가사:1.6931471805599454
가상:1.1823215567939547
가상현실:1.1823215567939547
가성:1.4054651081081644
가스:1.6931471805599454
가슴:1.4054651081081644
가야:1.4054651081081644
가요:1.6931471805599454
가을:1.0
가이드:1.0
가이드라인:1.6931471805599454
가입:1.0
가전제품:1.6931471805599454
가정:1.1823215567939547
가정용:1.6931471805599454
가정의:1.1823215567939547
가져다주:2.0986122886681096
가족:1.0
가족의:2.0986122886681096
가죽:1.1823215567939547
가지:1.4054651081081644
가치:1.0
가톨릭:1.4054651081081644
가평:1.4054651081081644
각종:1.6931471805599454
간:1.0
간단:1.4054651081081644
간담회:1.6931471805599454
간식:1.0
간염:2.0986122886681096
간절:2.0986122886681096
간호:1.6931471805599454
간호사:1.4054651081081644
갈등:1.6931471805599454
갈라:1.1823215567939547
갈비:1.6931471805599454
감:1.4054651081081644
감각:1.4054651081081644
감기:1.6931471805599454
감독:1.4054651081081644
감동:1.4054651081081644
감사:1.0
감상:1.0
감성:1.0
감염병:1.6931471805599454
감자:1.6931471805599454
감정:1.1823215567939547
갑상선:2.0986122886681096
갓:1.1823215567939547
강:1.1823215567939547
강남:1.1823215567939547
강남역:1.6931471805599454
강릉:1.1823215567939547
강민:1.4054651081081644
강변:1.4054651081081644
강북:1.6931471805599454
강사:1.4054651081081644
강서구:1.4054651081081644
강습:1.1823215567939547
강아지:1.1823215567939547
강연:1.0
강연회:1.6931471805599454
강원:1.4054651081081644
강원도:1.1823215567939547
강의:1.1823215567939547
강의실:1.6931471805599454
강좌:1.0
강진:1.4054651081081644
강화:1.0
강화도:1.6931471805599454
같:1.1823215567939547
같이:1.4054651081081644
개:1.0
개강:1.6931471805599454
개념:2.0986122886681096
개발:1.0
개발자:1.6931471805599454
개별:1.6931471805599454
개봉:1.4054651081081644
개선:1.0
개인:1.0
개장:1.4054651081081644
개최:1.4054651081081644
개편:1.6931471805599454
갤러리:1.1823215567939547
갯벌:1.4054651081081644
갱신:1.1823215567939547
거래:1.4054651081081644
거래처:1.1823215567939547
거리:1.1823215567939547
거실:1.6931471805599454
거울:1.6931471805599454
거제:1.4054651081081644
거창:1.6931471805599454
건강:1.0
건대:1.6931471805599454
건물:1.6931471805599454
건설:1.6931471805599454
건조기:2.0986122886681096
건축:1.0
걷:1.1823215567939547
검:1.1823215567939547
검사:1.4054651081081644
검색:1.1823215567939547
검진:1.4054651081081644
검토:1.0
게스트:1.1823215567939547
게임:1.0
게임기:1.6931471805599454
겨울:1.0
겨울철:1.4054651081081644
견적:1.4054651081081644
견학:1.4054651081081644
결과:1.0
결산:1.4054651081081644
결재:2.0986122886681096
결정:1.6931471805599454
결제:1.4054651081081644
결혼:1.0
결혼식:1.4054651081081644
겸:1.6931471805599454
경:1.1823215567939547
경기:1.0
경기도:1.1823215567939547
경기장:1.6931471805599454
경남:1.4054651081081644
경력:2.0986122886681096
경로:1.0
경매:1.6931471805599454
경복궁:1.4054651081081644
경북:1.1823215567939547
경비:1.1823215567939547
경상도:1.6931471805599454
경상북도:1.6931471805599454
경시:2.0986122886681096
경연:1.4054651081081644
경영:1.6931471805599454
경영진:2.0986122886681096
경영학:1.6931471805599454
경쟁:1.4054651081081644
경쟁력:1.6931471805599454
경쟁사:2.0986122886681096
경제:1.4054651081081644
경제학:1.6931471805599454
경주:1.4054651081081644
경진:2.0986122886681096
경치:1.4054651081081644
경포:1.4054651081081644
경품:1.1823215567939547
경험:1.0
경험담:1.4054651081081644
계:1.6931471805599454
계곡:1.4054651081081644
계단:1.6931471805599454
계룡:1.4054651081081644
계모:1.6931471805599454
계발:1.1823215567939547
계산:1.1823215567939547
계약:1.1823215567939547
계약금:1.4054651081081644
계약서:1.1823215567939547
계절:1.0
계정:1.4054651081081644
계좌:1.6931471805599454
계획:1.0
계획서:1.6931471805599454
고:1.0
고강도:2.0986122886681096
고객:1.1823215567939547
고고학:1.6931471805599454
고교:1.4054651081081644
고구마:1.6931471805599454
고급:1.0
고기:1.4054651081081644
고대:1.1823215567939547
고등:1.6931471805599454
고등학교:1.4054651081081644
고등학생:2.0986122886681096
고모:1.6931471805599454
고민:1.0
고백:2.0986122886681096
고성:1.1823215567939547
고속:1.4054651081081644
고속도로:1.1823215567939547
고속버스:1.6931471805599454
고속철도:2.0986122886681096
고양:1.4054651081081644
고양이:1.4054651081081644
고요:1.6931471805599454
고용:1.4054651081081644
고인:2.0986122886681096
고장:1.6931471805599454
고전:1.0
고정:2.0986122886681096
고지:1.6931471805599454
고창:1.4054651081081644
고향:1.4054651081081644
고흥:1.4054651081081644
곡성:1.6931471805599454
곤:1.6931471805599454
골:1.4054651081081644
골다공증:2.0986122886681096
골동품:1.4054651081081644
골드:1.1823215567939547
골든:1.6931471805599454
골목길:1.4054651081081644
골반:1.6931471805599454
골프:1.0
골프장:1.4054651081081644
곱창:1.6931471805599454
곳:1.1823215567939547
공:1.0
공간:1.0
공개:1.4054651081081644
공고:1.6931471805599454
공공:1.0
공과:2.0986122886681096
공급:1.6931471805599454
공기:1.4054651081081644
공기업:2.0986122886681096
공동:1.1823215567939547
공동체:1.4054651081081644
공모전:1.4054651081081644
공무원:2.0986122886681096
공방:1.4054651081081644
공부:1.0
공사:1.6931471805599454
공식:1.6931471805599454
공연:1.0
공예:1.0
공예품:1.6931471805599454
공원:1.1823215567939547
공유:1.0
공장:1.6931471805599454
공정:2.0986122886681096
공주:1.4054651081081644
공지:1.4054651081081644
공포:1.6931471805599454
공학:1.6931471805599454
공항:1.1823215567939547
공헌:1.4054651081081644
공화국:1.6931471805599454
과목:2.0986122886681096
과외:1.4054651081081644
과일:1.4054651081081644
과장:1.6931471805599454
과정:1.0
과제:1.6931471805599454
과천:1.6931471805599454
과학:1.0
관계:1.0
관계자:2.0986122886681096
관광:1.1823215567939547
관광지:1.6931471805599454
관람:1.1823215567939547
관련:1.0
관리:1.0
관리비:2.0986122886681096
관리자:1.6931471805599454
관악:2.0986122886681096
관찰:1.1823215567939547
관측:1.0
괌:1.6931471805599454
광:1.1823215567939547
광고:1.1823215567939547
광명:1.4054651081081644
광안리:1.4054651081081644
광양:1.4054651081081644
광장:1.4054651081081644
광주:1.1823215567939547
광화문:1.4054651081081644
교내:1.6931471805599454
교류:1.1823215567939547
교사:1.6931471805599454
교수:1.4054651081081644
교실:1.1823215567939547
교양:1.1823215567939547
교육:1.0
교육학:1.6931471805599454
교재:1.4054651081081644
교정:1.1823215567939547
교직원:1.6931471805599454
교체:1.6931471805599454
교토:1.6931471805599454
교통:1.1823215567939547
교향곡:2.0986122886681096
교환:1.1823215567939547
교회:1.4054651081081644
구:1.0
구강:2.0986122886681096
구경:1.1823215567939547
구독:1.6931471805599454
구두:2.0986122886681096
구례:1.6931471805599454
구리:1.6931471805599454
구매:1.0
구미:1.4054651081081644
구성:1.1823215567939547
구입:1.1823215567939547
구조:1.6931471805599454
구직:1.6931471805599454
구축:1.6931471805599454
국가:1.1823215567939547
국내:1.1823215567939547
국내선:2.0986122886681096
국립:1.1823215567939547
국밥:1.6931471805599454
국악:1.4054651081081644
국어:2.0986122886681096
국제:1.0
국제선:2.0986122886681096
국화:1.4054651081081644
군:1.1823215567939547
군산:1.4054651081081644
군포:1.4054651081081644
궁:1.6931471805599454
궁전:1.4054651081081644
귀:1.6931471805599454
귀가:1.4054651081081644
귀걸이:1.4054651081081644
귀국:1.1823215567939547
규정:1.1823215567939547
균형:1.0
그:1.4054651081081644
그래픽:1.4054651081081644
그랜드:1.4054651081081644
그룹:1.0
그리:1.0
그리스:1.4054651081081644
그리운:2.0986122886681096
그린:1.1823215567939547
그릴:1.4054651081081644
그림:1.1823215567939547
극복:1.4054651081081644
극장:1.6931471805599454
근교:1.4054651081081644
근대:2.0986122886681096
근력:1.6931471805599454
근로:2.0986122886681096
근무:1.6931471805599454
근무자:2.0986122886681096
근육:1.6931471805599454
근처:1.1823215567939547
글:1.0
글로벌:1.0
글루:2.0986122886681096
글쓰기:1.4054651081081644
금:1.1823215567939547
금산:1.6931471805599454
금연:2.0986122886681096
금요일:1.1823215567939547
금융:1.4054651081081644
금정:1.6931471805599454
금호:1.6931471805599454
급여:2.0986122886681096
긍정:1.1823215567939547
기:1.0
기간:1.1823215567939547
기계:1.4054651081081644
기관:1.6931471805599454
기구:1.4054651081081644
기기:1.6931471805599454
기념:1.0
기념비:2.0986122886681096
기념식:1.6931471805599454
기념일:1.0
기념품:1.1823215567939547
기능:1.4054651081081644
기니:2.0986122886681096
기대:1.1823215567939547
기도:1.4054651081081644
기독교:1.6931471805599454
기록:1.0
기리:2.0986122886681096
기말:2.0986122886681096
기말고사:1.6931471805599454
기밀:2.0986122886681096
기반:1.6931471805599454
기법:1.4054651081081644
기본:1.4054651081081644
기부:1.4054651081081644
기분:1.1823215567939547
기쁨:1.4054651081081644
기사:1.4054651081081644
기상:1.1823215567939547
기숙사:1.1823215567939547
기술:1.0
기술자:2.0986122886681096
기억:1.1823215567939547
기업:1.0
기업가:1.6931471805599454
기업인:1.6931471805599454
기원:1.1823215567939547
기일:2.0986122886681096
기존:1.6931471805599454
기준:2.0986122886681096
기증:2.0986122886681096
기차:1.1823215567939547
기차역:1.6931471805599454
기초:1.0
기타:1.1823215567939547
기한:1.4054651081081644
기행:1.6931471805599454
기회:1.4054651081081644
기획:1.0
기후:1.1823215567939547
긴:1.4054651081081644
긴급:1.1823215567939547
길:1.0
길거리:1.4054651081081644
김:1.1823215567939547
김대:1.6931471805599454
김민:1.1823215567939547
김밥:1.6931471805599454
김선:1.6931471805599454
김수:2.0986122886681096
김영:1.4054651081081644
김윤:2.0986122886681096
김은:1.6931471805599454
김장:1.6931471805599454
김재:2.0986122886681096
김정:2.0986122886681096
김제:1.4054651081081644
김지:1.6931471805599454
김진:2.0986122886681096
김천:1.4054651081081644
김철:1.6931471805599454
김치:1.6931471805599454
김포:1.4054651081081644
김해:1.4054651081081644
김현:1.4054651081081644
김현수:2.0986122886681096
김희:1.6931471805599454
깊:1.6931471805599454
깜짝:2.0986122886681096
꽃:1.0
꽃다발:1.4054651081081644
꾸미:1.6931471805599454
꿈:1.0
꿈꾸:1.6931471805599454
끝:1.4054651081081644
나:1.1823215567939547
나고야:1.6931471805599454
나누:1.4054651081081644
나눈:2.0986122886681096
나눔:1.0
나들이:1.1823215567939547
나무:1.1823215567939547
나미:1.6931471805599454
나비:1.4054651081081644
나의:1.6931471805599454
나이:1.6931471805599454
나이지리아:1.6931471805599454
나이트:1.0
나일:1.6931471805599454
나주:1.6931471805599454
낙:1.4054651081081644
낙엽:2.0986122886681096
낚시:1.1823215567939547
난:1.4054651081081644
난방:1.6931471805599454
날:1.0
날씨:1.4054651081081644
날짜:1.1823215567939547
남:1.1823215567939547
남극:1.4054651081081644
남기:1.1823215567939547
남미:1.1823215567939547
남부:1.6931471805599454
남산:1.4054651081081644
남성:1.4054651081081644
남아공:2.0986122886681096
남아프리카:1.6931471805599454
남양주:1.4054651081081644
남원:1.4054651081081644
남이:1.4054651081081644
남자:1.6931471805599454
남편:1.6931471805599454
남해:1.4054651081081644
납부:1.0
납품:2.0986122886681096
낭독:1.6931471805599454
낭만:1.4054651081081644
낮:2.0986122886681096
낯선:1.4054651081081644
내:1.0
내과:2.0986122886681096
내부:1.4054651081081644
내분:2.0986122886681096
내비게이션:1.6931471805599454
내셔널:1.6931471805599454
내시경:2.0986122886681096
내신:2.0986122886681096
내역:1.4054651081081644
내용:1.1823215567939547
내일:1.1823215567939547
내장:1.6931471805599454
냉동:1.6931471805599454
냉면:1.6931471805599454
냉장고:1.4054651081081644
넘치:1.4054651081081644
네:1.1823215567939547
네덜란드:1.6931471805599454
네일:1.4054651081081644
네트:1.1823215567939547
네트워크:1.1823215567939547
년:1.0
노:1.6931471805599454
노래:1.4054651081081644
노래방:1.4054651081081644
노르웨이:1.6931471805599454
노무:2.0986122886681096
노선:1.6931471805599454
노을:1.4054651081081644
노인:1.6931471805599454
노트:1.0
노트북:1.4054651081081644
노하우:1.6931471805599454
노후:2.0986122886681096
녹:1.4054651081081644
녹음:1.1823215567939547
녹차:1.1823215567939547
녹화:2.0986122886681096
논리:2.0986122886681096
논문:1.6931471805599454
논산:1.4054651081081644
논술:1.6931471805599454
논의:1.1823215567939547
놀:1.1823215567939547
놀러:1.6931471805599454
놀이:1.0
놀이터:1.6931471805599454
농구:1.1823215567939547
농산물:1.1823215567939547
농업:1.4054651081081644
농장:1.1823215567939547
농촌:1.0
누:1.4054651081081644
누나:1.6931471805599454
눈:1.1823215567939547
눈꽃:1.4054651081081644
눈썹:2.0986122886681096
뉴:1.1823215567939547
뉴스:1.1823215567939547
뉴욕:1.4054651081081644
뉴질랜드:1.6931471805599454
느끼:1.4054651081081644
능력:1.4054651081081644
늦:1.4054651081081644
니:1.4054651081081644
님:2.0986122886681096
다:1.0
다도:1.4054651081081644
다리:1.1823215567939547
다문화:1.1823215567939547
다빈:1.6931471805599454
다시:1.0
다양:1.0
다운로드:1.1823215567939547
다음:1.0
다이:1.1823215567939547
다이빙:1.1823215567939547
다이어리:1.4054651081081644
다이어트:1.1823215567939547
다채:2.0986122886681096
다카:1.6931471805599454
다큐멘터리:1.1823215567939547
닦:1.6931471805599454
단:1.1823215567939547
단기:1.0
단발:2.0986122886681096
단양:1.4054651081081644
단체:1.0
단편:1.4054651081081644
단풍:1.1823215567939547
달:1.1823215567939547
달력:1.6931471805599454
달리기:1.4054651081081644
달빛:1.4054651081081644
달성:1.1823215567939547
달콤:1.4054651081081644
닭:1.1823215567939547
닭갈비:1.1823215567939547
닭발:2.0986122886681096
담:1.4054651081081644
담당자:1.4054651081081644
담양:1.4054651081081644
담임:1.6931471805599454
답변:1.1823215567939547
답사:1.1823215567939547
당구:1.6931471805599454
당근:1.6931471805599454
당일:1.1823215567939547
당진:1.4054651081081644
대:1.0
대결:2.0986122886681096
대관:1.6931471805599454
대관령:1.6931471805599454
대구:1.1823215567939547
대규:1.4054651081081644
대기:1.1823215567939547
대리:1.4054651081081644
대만:1.4054651081081644
대면:1.4054651081081644
대명:1.6931471805599454
대부:1.4054651081081644
대비:1.1823215567939547
대상:1.4054651081081644
대여:1.1823215567939547
대왕:2.0986122886681096
대응:1.6931471805599454
대입:2.0986122886681096
대장:2.0986122886681096
대전:1.1823215567939547
대중:1.0
대중교통:1.1823215567939547
대책:1.6931471805599454
대처:1.4054651081081644
대청:1.4054651081081644
대출:1.4054651081081644
대표:1.1823215567939547
대학:1.0
대학교:1.4054651081081644
대학생:1.4054651081081644
대학원:1.6931471805599454
대한민국:1.1823215567939547
대한항공:2.0986122886681096
대행:1.6931471805599454
대형:1.0
대화:1.0
대회:1.0
댁:1.6931471805599454
댄스:1.0
댕:2.0986122886681096
더:1.4054651081081644
더블:1.4054651081081644
덕:1.4054651081081644
데:1.1823215567939547
데리:1.6931471805599454
데이:1.0
데이터:1.1823215567939547
데이터베이스:2.0986122886681096
데이트:1.1823215567939547
데코:1.4054651081081644
덴마크:1.6931471805599454
도:1.4054651081081644
도구:1.4054651081081644
도덕:2.0986122886681096
도로:1.4054651081081644
도모:2.0986122886681096
도미:1.6931471805599454
도보:1.4054651081081644
도봉:1.4054651081081644
도서:1.0
도서관:1.0
도시:1.0
도시락:1.4054651081081644
도심:1.1823215567939547
도어:2.0986122886681096
도예:1.1823215567939547
도와:1.1823215567939547
도움:1.1823215567939547
도입:1.6931471805599454
도자기:1.0
도장:1.4054651081081644
도전:1.0
도착:1.0
도쿄:1.1823215567939547
독:1.1823215567939547
독감:2.0986122886681096
독도:1.4054651081081644
독려:1.4054651081081644
독립:1.1823215567939547
독립영화:1.6931471805599454
독서:1.0
독일:1.4054651081081644
독일어:1.6931471805599454
독특:1.6931471805599454
돈:1.4054651081081644
돌:1.1823215567939547
돌아가:2.0986122886681096
동:1.4054651081081644
동기:1.0
동남아:1.6931471805599454
동남아시아:1.6931471805599454
동네:1.4054651081081644
동대문:1.4054651081081644
동료:1.0
동문:1.4054651081081644
동물:1.0
동물원:1.1823215567939547
동반:1.0
동부:1.6931471805599454
동생:1.4054651081081644
동아리:1.0
동아시아:1.4054651081081644
동양:1.4054651081081644
동영상:1.1823215567939547
동유럽:1.6931471805599454
동창:1.4054651081081644
동창회:1.1823215567939547
동해:1.4054651081081644
동행:1.4054651081081644
동향:1.1823215567939547
동호회:1.0
동화:1.4054651081081644
동화책:2.0986122886681096
돼지:1.4054651081081644
되:1.4054651081081644
되새기:1.6931471805599454
두:1.4054651081081644
두피:2.0986122886681096
둘레길:2.0986122886681096
뒤:1.6931471805599454
뒷:1.4054651081081644
드라마:1.0
드라마틱:1.4054651081081644
드라이:1.6931471805599454
드라이브:1.1823215567939547
드라이빙:1.6931471805599454
드럼:1.4054651081081644
드레스:1.1823215567939547
드로잉:1.1823215567939547
드론:1.0
드림:1.1823215567939547
듣:1.1823215567939547
등:1.0
등교:1.6931471805599454
등록:1.1823215567939547
등반:1.4054651081081644
등산:1.1823215567939547
디:1.0
디너:1.0
디스:1.6931471805599454
디자이너:1.1823215567939547
디자인:1.1823215567939547
디저트:1.4054651081081644
디즈니:1.4054651081081644
디지털:1.0
딥:1.6931471805599454
따:1.1823215567939547
따뜻:1.1823215567939547
따라:1.1823215567939547
딸:2.0986122886681096
딸기:1.1823215567939547
떠나:1.4054651081081644
떡:1.6931471805599454
떡볶이:1.6931471805599454
뜨개:2.0986122886681096
라:1.0
라디오:1.4054651081081644
라멘:1.6931471805599454
라면:1.4054651081081644
라스베이거스:1.6931471805599454
라오스:1.6931471805599454
라운드:1.4054651081081644
라운지:1.4054651081081644
라이:1.0
라이브:1.0
라이브러리:1.4054651081081644
라이온:1.6931471805599454
라이프:1.1823215567939547
라크:2.0986122886681096
라트:1.6931471805599454
라틴:1.6931471805599454
락:1.1823215567939547
랜:1.4054651081081644
랩:1.4054651081081644
랭:1.6931471805599454
러:1.6931471805599454
러닝:1.1823215567939547
러브:1.6931471805599454
러시아:1.1823215567939547
럭비:1.4054651081081644
럭셔리:1.4054651081081644
런:1.0
런닝:1.4054651081081644
런던:1.6931471805599454
레:1.1823215567939547
레고:1.1823215567939547
레드:1.4054651081081644
레바논:1.6931471805599454
레스토랑:1.1823215567939547
레슨:1.0
레시피:1.6931471805599454
레이:1.4054651081081644
레이싱:1.4054651081081644
레이어:1.6931471805599454
레이저:1.6931471805599454
레일:1.4054651081081644
레저:1.4054651081081644
레코드:1.6931471805599454
레트:1.4054651081081644
렌즈:1.6931471805599454
렌탈:1.4054651081081644
렌터카:1.4054651081081644
렌트:1.4054651081081644
로:1.4054651081081644
로마:1.6931471805599454
로맨스:1.4054651081081644
로맨틱:1.4054651081081644
로봇:1.1823215567939547
로스앤젤레스:1.6931471805599454
로컬:1.1823215567939547
록:1.4054651081081644
롤:1.4054651081081644
롤러:1.6931471805599454
롤러코스터:1.4054651081081644
롯데:1.1823215567939547
롯데월드:1.4054651081081644
루:1.1823215567939547
루마니아:1.6931471805599454
루트:1.4054651081081644
루프:1.4054651081081644
룩셈부르크:2.0986122886681096
룸:1.4054651081081644
류:1.6931471805599454
르:1.6931471805599454
리:1.0
리그:1.6931471805599454
리더:1.4054651081081644
리더십:1.6931471805599454
리마:1.0
리모:1.1823215567939547
리모컨:2.0986122886681096
리무진:2.0986122886681096
리뷰:1.0
리서치:1.4054651081081644
리스:1.1823215567939547
리스크:2.0986122886681096
리스트:1.0
리오:1.6931471805599454
리우데자네이루:2.0986122886681096
리조트:1.4054651081081644
리터:1.6931471805599454
리투아니아:1.6931471805599454
리트:1.1823215567939547
리포트:1.1823215567939547
리프:1.1823215567939547
리프트:1.1823215567939547
리허설:1.4054651081081644
릴:1.6931471805599454
립:1.4054651081081644
링크:1.6931471805599454
마:1.4054651081081644
마감:1.1823215567939547
마닐라:1.6931471805599454
마다:2.0986122886681096
마당:1.6931471805599454
마드리드:1.6931471805599454
마라:1.4054651081081644
마라톤:1.4054651081081644
마련:1.4054651081081644
마무리:1.1823215567939547
마법:1.4054651081081644
마블:1.4054651081081644
마사지:1.4054651081081644
마산:1.6931471805599454
마술:1.4054651081081644
마스크:1.4054651081081644
마스터:1.0
마시:1.6931471805599454
마우스:1.6931471805599454
마운틴:1.4054651081081644
마을:1.1823215567939547
마음:1.1823215567939547
마이:1.4054651081081644
마이애미:1.6931471805599454
마이크:1.4054651081081644
마이크로:1.1823215567939547
마지막:1.0
마카롱:1.4054651081081644
마카오:1.6931471805599454
마케팅:1.1823215567939547
마켓:1.0
마트:1.0
마포:1.4054651081081644
마포구:1.4054651081081644
막걸리:2.0986122886681096
만:1.4054651081081644
만기:1.6931471805599454
만끽:1.4054651081081644
만나:1.0
만남:1.0
만든:1.6931471805599454
만들:1.0
만성:1.6931471805599454
만족:1.4054651081081644
만족도:1.1823215567939547
만찬:1.4054651081081644
만화:1.4054651081081644
만화책:1.6931471805599454
말:1.4054651081081644
말라:2.0986122886681096
말레이시아:1.4054651081081644
말씀:2.0986122886681096
맘:1.4054651081081644
맛보:1.6931471805599454
맛있:1.6931471805599454
맛집:1.1823215567939547
망:1.4054651081081644
맞:1.1823215567939547
맞이:1.1823215567939547
맞춤:1.0
맡긴:2.0986122886681096
매너:1.0
매뉴얼:1.6931471805599454
매니:1.4054651081081644
매니저:2.0986122886681096
매니지먼트:1.4054651081081644
매달:1.6931471805599454
매력:1.0
매운:1.6931471805599454
매일:1.1823215567939547
매장:1.1823215567939547
매주:1.4054651081081644
매직:1.4054651081081644
매진:2.0986122886681096
매체:2.0986122886681096
매출:2.0986122886681096
매트:1.4054651081081644
매트리스:2.0986122886681096
맥주:1.1823215567939547
맨:1.1823215567939547
머:1.4054651081081644
머리:1.6931471805599454
머신:1.6931471805599454
먹:1.4054651081081644
먹방:1.6931471805599454
멀티미디어:1.6931471805599454
멋진:1.4054651081081644
메:1.4054651081081644
메뉴:1.4054651081081644
메모:1.4054651081081644
메시지:1.0
메이:1.4054651081081644
메이크업:1.4054651081081644
메이플:2.0986122886681096
메일:1.1823215567939547
메타:1.1823215567939547
멕시코:1.4054651081081644
멘토:1.4054651081081644
멘토링:1.1823215567939547
멜버른:2.0986122886681096
멤버:1.4054651081081644
멤버십:1.1823215567939547
면담:2.0986122886681096
면역:2.0986122886681096
면역력:2.0986122886681096
면접:1.4054651081081644
명:1.1823215567939547
명단:1.4054651081081644
명동:1.4054651081081644
명복:2.0986122886681096
명상:1.0
명소:1.1823215567939547
명절:1.1823215567939547
명품:1.4054651081081644
모:1.0
모나코:1.6931471805599454
모노:1.4054651081081644
모니터링:2.0986122886681096
모던:1.4054651081081644
모델:1.1823215567939547
모델링:1.6931471805599454
모래:1.4054651081081644
모로코:1.6931471805599454
모리:2.0986122886681096
모바일:1.0
모발:1.6931471805599454
모빌:1.6931471805599454
모색:1.6931471805599454
모스크바:1.6931471805599454
모의:1.6931471805599454
모의고사:2.0986122886681096
모임:1.0
모자:1.6931471805599454
모집:1.1823215567939547
모텔:2.0986122886681096
모험:1.1823215567939547
모형:1.4054651081081644
목:1.0
목공:1.4054651081081644
목록:1.4054651081081644
목요일:1.1823215567939547
목욕:1.4054651081081644
목포:1.4054651081081644
목표:1.0
몬테:1.6931471805599454
몬트리올:1.6931471805599454
몰:1.6931471805599454
몸:1.4054651081081644
몸매:1.6931471805599454
못:1.1823215567939547
몽:1.4054651081081644
몽골:1.1823215567939547
묘지:2.0986122886681096
무:1.4054651081081644
무궁화:1.6931471805599454
무대:1.1823215567939547
무도:1.6931471805599454
무등:1.6931471805599454
무료:1.0
무비:1.6931471805599454
무선:2.0986122886681096
무안:1.4054651081081644
무역:1.4054651081081644
무용:1.4054651081081644
무주:1.4054651081081644
묵:1.6931471805599454
문:1.0
문경:1.4054651081081644
문구:1.6931471805599454
문법:2.0986122886681096
문서:1.0
문신:2.0986122886681096
문의:1.0
문자:1.4054651081081644
문제:1.0
문학:1.1823215567939547
문학상:2.0986122886681096
문화:1.0
문화예술:1.1823215567939547
문화유산:1.1823215567939547
문화재:1.1823215567939547
문화제:1.6931471805599454
묻:1.6931471805599454
물:1.0
물건:2.0986122886681096
물놀이:1.1823215567939547
물류:2.0986122886681096
물리:1.4054651081081644
물리치:1.4054651081081644
물리학:2.0986122886681096
물품:1.0
뮤지엄:1.4054651081081644
뮤지컬:1.0
뮤직:1.4054651081081644
미:1.4054651081081644
미국:1.1823215567939547
미니:1.1823215567939547
미디어:1.1823215567939547
미래:1.1823215567939547
미륵:1.6931471805599454
미백:2.0986122886681096
미사:1.6931471805599454
미술:1.0
미술관:1.1823215567939547
미술사:1.4054651081081644
미스터리:1.6931471805599454
미식:1.1823215567939547
미얀마:1.4054651081081644
미용:1.4054651081081644
미용실:1.6931471805599454
미적:2.0986122886681096
미정:1.6931471805599454
미팅:1.0
민:1.0
민속:1.0
민수:1.6931471805599454
민영:2.0986122886681096
민주:1.6931471805599454
민지:1.6931471805599454
믿음:1.6931471805599454
밀:1.4054651081081644
밀라노:1.6931471805599454
밀양:1.4054651081081644
및:1.0
바:1.1823215567939547
바구니:1.6931471805599454
바다:1.1823215567939547
바닥:2.0986122886681096
바닷가:1.1823215567939547
바둑:1.4054651081081644
바디:1.1823215567939547
바람:1.4054651081081644
바레인:1.6931471805599454
바르샤바:1.6931471805599454
바르셀로나:1.6931471805599454
바리스타:1.1823215567939547
바베큐:1.1823215567939547
바비큐:1.4054651081081644
바스:1.4054651081081644
바에:2.0986122886681096
바이어:2.0986122886681096
바이오:1.6931471805599454
바이올린:1.1823215567939547
바이크:1.4054651081081644
바자:1.4054651081081644
바캉스:1.1823215567939547
바퀴:2.0986122886681096
박:1.4054651081081644
박람회:1.0
박물관:1.1823215567939547
박스:2.0986122886681096
반:1.1823215567939547
반가운:2.0986122886681096
반납:1.4054651081081644
반도체:2.0986122886681096
반딧:1.6931471805599454
반려:1.0
반영:1.4054651081081644
반지:1.6931471805599454
반포:1.4054651081081644
반품:1.6931471805599454
반환:1.4054651081081644
받:1.0
발:1.1823215567939547
발견:1.0
발굴:1.6931471805599454
발급:1.1823215567939547
발달:1.6931471805599454
발레:1.4054651081081644
발렌타인:1.6931471805599454
발리:1.4054651081081644
발명:1.6931471805599454
발생:1.1823215567939547
발송:1.0
발전:1.1823215567939547
발톱:1.6931471805599454
발표:1.0
발표회:1.4054651081081644
발행:1.6931471805599454
밤:1.0
밤하늘:1.4054651081081644
밥:2.0986122886681096
밥솥:2.0986122886681096
방:1.1823215567939547
방과:1.6931471805599454
방글라데시:1.6931471805599454
방문:1.0
방법:1.1823215567939547
방법론:2.0986122886681096
방송:1.1823215567939547
방안:1.4054651081081644
방지:1.6931471805599454
방콕:1.6931471805599454
방학:1.0
방향:1.4054651081081644
배:1.4054651081081644
배경:1.4054651081081644
배구:1.6931471805599454
배낭:1.4054651081081644
배달:1.0
배드민턴:1.4054651081081644
배송:1.4054651081081644
배수:2.0986122886681096
배우:1.0
배정:1.4054651081081644
배치:1.1823215567939547
배터리:2.0986122886681096
배틀:1.6931471805599454
배포:1.4054651081081644
백:1.0
백신:2.0986122886681096
백업:1.4054651081081644
백운:1.6931471805599454
백일:1.6931471805599454
백제:1.4054651081081644
백화점:1.4054651081081644
밴드:1.4054651081081644
밴쿠버:1.6931471805599454
밸런스:1.1823215567939547
버:1.1823215567939547
버거:1.6931471805599454
버리:2.0986122886681096
버블:1.6931471805599454
버섯:1.4054651081081644
버스:1.1823215567939547
번:1.0
번개:2.0986122886681096
번역:1.1823215567939547
번지:1.4054651081081644
범죄:1.6931471805599454
법:1.4054651081081644
법규:2.0986122886681096
법률:1.1823215567939547
법무:2.0986122886681096
법인:1.6931471805599454
법학:2.0986122886681096
벚꽃:1.4054651081081644
베:1.1823215567939547
베개:2.0986122886681096
베네수엘라:1.6931471805599454
베네치아:1.6931471805599454
베니스:1.6931471805599454
베드:1.6931471805599454
베란다:1.6931471805599454
베를린:1.6931471805599454
베스트:1.4054651081081644
베이:1.0
베이비:1.4054651081081644
베이징:1.4054651081081644
베이커리:1.1823215567939547
베트남:1.1823215567939547
벤처:1.4054651081081644
벤치마킹:2.0986122886681096
벨:1.4054651081081644
벨기에:1.6931471805599454
벨라:1.6931471805599454
벼룩:1.6931471805599454
벽:1.1823215567939547
벽지:2.0986122886681096
벽화:1.6931471805599454
변:1.0
변경:1.0
변기:2.0986122886681096
변신:1.6931471805599454
변화:1.4054651081081644
별:1.1823215567939547
별빛:1.4054651081081644
별자리:1.1823215567939547
별장:1.6931471805599454
병:1.1823215567939547
병원:1.1823215567939547
보:1.0
보강:1.6931471805599454
보건:1.6931471805599454
보고:1.0
보고서:1.4054651081081644
보고회:1.6931471805599454
보관:1.0
보금자리:2.0986122886681096
보내:1.0
보드:1.1823215567939547
보드게임:1.4054651081081644
보라:1.4054651081081644
보령:1.4054651081081644
보리:1.6931471805599454
보상:1.6931471805599454
보석:1.1823215567939547
보성:1.4054651081081644
보수:1.6931471805599454
보스니아:1.6931471805599454
보스턴:1.6931471805599454
보안:1.4054651081081644
보완:1.1823215567939547
보일러:2.0986122886681096
보조:1.4054651081081644
보증:1.4054651081081644
보충:1.6931471805599454
보컬:1.4054651081081644
보트:1.4054651081081644
보험:1.1823215567939547
보험료:2.0986122886681096
보호:1.0
복:1.4054651081081644
복고:1.4054651081081644
복구:1.4054651081081644
복리:2.0986122886681096
복부:1.6931471805599454
복습:2.0986122886681096
복싱:1.4054651081081644
복장:1.0
복지:1.6931471805599454
복합:1.4054651081081644
본:1.4054651081081644
본부:1.6931471805599454
본사:1.6931471805599454
볼:1.1823215567939547
볼륨:1.6931471805599454
볼리비아:2.0986122886681096
볼링:1.4054651081081644
봄:1.0
봄꽃:1.1823215567939547
봄날:1.4054651081081644
봄철:1.4054651081081644
봉:1.1823215567939547
봉급:2.0986122886681096
봉사:1.0
봉화:1.6931471805599454
부:1.0
부다:1.6931471805599454
부동산:1.4054651081081644
부르:1.4054651081081644
부모:1.0
부문:2.0986122886681096
부부:1.4054651081081644
부산:1.1823215567939547
부서:1.4054651081081644
부안:1.6931471805599454
부엌:2.0986122886681096
부에:1.6931471805599454
부여:1.1823215567939547
부장:1.6931471805599454
부천:1.4054651081081644
부품:1.6931471805599454
부활절:2.0986122886681096
부흥:2.0986122886681096
북:1.0
북극:1.4054651081081644
북유럽:1.1823215567939547
북한산:1.4054651081081644
분:1.1823215567939547
분기:1.4054651081081644
분당:1.4054651081081644
분리:2.0986122886681096
분석:1.0
분석가:2.0986122886681096
분식:1.6931471805599454
분실:1.6931471805599454
분야:1.6931471805599454
분위기:1.0
분쟁:1.6931471805599454
불:1.1823215567939547
불가:1.4054651081081644
불가리아:1.6931471805599454
불고기:1.6931471805599454
불교:1.6931471805599454
불꽃:1.4054651081081644
불꽃놀이:1.1823215567939547
뷔페:1.6931471805599454
뷰:1.6931471805599454
뷰티:1.1823215567939547
브라:1.1823215567939547
브라이:1.6931471805599454
브라질:1.4054651081081644
브랜:2.0986122886681096
브랜드:1.0
브런치:1.4054651081081644
브레이크:1.0
브레인:2.0986122886681096
브로드웨이:1.6931471805599454
브루:1.4054651081081644
브뤼셀:1.6931471805599454
브리핑:2.0986122886681096
블라인드:1.4054651081081644
블랙:1.1823215567939547
블로그:1.1823215567939547
블록체인:2.0986122886681096
블루:1.1823215567939547
블루베리:1.4054651081081644
블루스:1.6931471805599454
블루투스:2.0986122886681096
비:1.0
비교:1.0
비누:1.6931471805599454
비대:1.1823215567939547
비디오:1.0
비만:2.0986122886681096
비밀:1.1823215567939547
비빔밥:1.4054651081081644
비상:1.0
비스트:2.0986122886681096
비어:1.6931471805599454
비엔나:1.4054651081081644
비엔날레:1.4054651081081644
비염:2.0986122886681096
비오:1.6931471805599454
비용:1.0
비자:1.4054651081081644
비전:1.0
비주얼:1.4054651081081644
비즈:1.6931471805599454
비즈니스:1.0
비치:1.1823215567939547
비키니:1.6931471805599454
비타민:1.4054651081081644
비판:2.0986122886681096
비평:2.0986122886681096
비행:1.4054651081081644
비행기:1.4054651081081644
빅:1.1823215567939547
빈:1.1823215567939547
빈티지:1.1823215567939547
빌딩:1.1823215567939547
빌라:1.6931471805599454
빌린:2.0986122886681096
빕:1.6931471805599454
빙:1.4054651081081644
빙상:1.4054651081081644
빙수:1.6931471805599454
빛:1.4054651081081644
빛나:1.6931471805599454
빠른:1.6931471805599454
빨래:1.4054651081081644
빵:1.6931471805599454
빵집:1.1823215567939547
뿌리:2.0986122886681096
사:1.1823215567939547
사격:1.6931471805599454
사계절:1.4054651081081644
사고:1.4054651081081644
사기:1.1823215567939547
사내:2.0986122886681096
사람:1.1823215567939547
사랑:1.1823215567939547
사랑과:2.0986122886681096
사례:1.4054651081081644
사료:1.6931471805599454
사막:1.4054651081081644
사무:1.4054651081081644
사무실:1.0
사물:1.6931471805599454
사업:1.1823215567939547
사용:1.0
사용법:1.0
사우나:1.4054651081081644
사우디아라비아:1.6931471805599454
사운드:1.0
사원:1.4054651081081644
사이:1.0
사이버:1.6931471805599454
사이언스:1.1823215567939547
사이클:1.4054651081081644
사이트:1.6931471805599454
사장:1.6931471805599454
사전:1.0
사진:1.0
사천:1.4054651081081644
사촌:1.6931471805599454
사파리:1.4054651081081644
사항:1.1823215567939547
사회:1.1823215567939547
사회봉사:1.4054651081081644
사회학:2.0986122886681096
삭제:1.1823215567939547
산:1.1823215567939547
산림:1.0
산맥:1.6931471805599454
산부인과:2.0986122886681096
산속:1.6931471805599454
산악:1.1823215567939547
산업:1.4054651081081644
산전:2.0986122886681096
산정:1.1823215567939547
산책:1.1823215567939547
산책로:1.1823215567939547
산청:1.6931471805599454
산타:1.6931471805599454
산티아고:2.0986122886681096
산행:1.6931471805599454
산후:1.4054651081081644
삶:1.0
삼:1.4054651081081644
삼겹살:1.6931471805599454
삼성:1.4054651081081644
삼척:1.4054651081081644
삼청동:1.4054651081081644
삼촌:1.6931471805599454
상:1.4054651081081644
상거래:2.0986122886681096
상견례:1.6931471805599454
상담:1.0
상무:1.1823215567939547
상반기:1.6931471805599454
상사:1.6931471805599454
상상력:2.0986122886681096
상영:1.4054651081081644
상주:1.4054651081081644
상태:1.1823215567939547
상품:1.1823215567939547
상하이:1.4054651081081644
상호:1.6931471805599454
상환:2.0986122886681096
상황:1.0
새:1.0
새내기:1.6931471805599454
새로:1.4054651081081644
새로운:1.0
새벽:1.0
새해:1.1823215567939547
색:1.4054651081081644
색소:1.6931471805599454
색채:1.6931471805599454
샌드위치:1.4054651081081644
샌프란시스코:1.6931471805599454
샐러드:1.6931471805599454
샘플:1.4054651081081644
생:1.1823215567939547
생리:1.6931471805599454
생명:1.4054651081081644
생물:1.4054651081081644
생물학:1.6931471805599454
생산:2.0986122886681096
생수:2.0986122886681096
생일:1.1823215567939547
생태:1.1823215567939547
생태학:2.0986122886681096
생활:1.0
샤브샤브:1.6931471805599454
샤워:1.1823215567939547
샴페인:1.6931471805599454
샵:2.0986122886681096
서:1.1823215567939547
서귀포:1.4054651081081644
서랍:2.0986122886681096
서로:1.6931471805599454
서류:1.1823215567939547
서명:1.4054651081081644
서버:1.6931471805599454
서부:1.4054651081081644
서비스:1.0
서빙:1.4054651081081644
서산:1.4054651081081644
서예:1.1823215567939547
서울:1.1823215567939547
서울대:1.4054651081081644
서울시:1.4054651081081644
서울역:1.4054651081081644
서재:2.0986122886681096
서적:1.1823215567939547
서점:1.4054651081081644
서천:1.4054651081081644
서초동:1.6931471805599454
서커스:1.6931471805599454
서프라이즈:1.4054651081081644
서핑:1.1823215567939547
서해:1.4054651081081644
서해안:1.4054651081081644
석:1.4054651081081644
석사:1.6931471805599454
석양:1.4054651081081644
선:1.4054651081081644
선거:1.6931471805599454
선교:2.0986122886681096
선물:1.0
선배:1.4054651081081644
선생:1.1823215567939547
선수:1.6931471805599454
선정:1.4054651081081644
선택:1.0
선후배:1.6931471805599454
설:1.1823215567939547
설계:1.6931471805599454
설날:1.0
설레:2.0986122886681096
설렘:1.6931471805599454
설명:1.4054651081081644
설명서:1.4054651081081644
설문:1.0
설악산:1.4054651081081644
설정:1.0
설치:1.0
섬:1.4054651081081644
섬진강:2.0986122886681096
섭외:1.1823215567939547
성:1.0
성가:1.6931471805599454
성경:1.6931471805599454
성공:1.0
성과:1.4054651081081644
성남:1.4054651081081644
성당:1.4054651081081644
성령:2.0986122886681096
성모:1.4054651081081644
성산:2.0986122886681096
성수:1.4054651081081644
성인:1.4054651081081644
성장:1.0
성적:1.4054651081081644
성전:2.0986122886681096
성주:1.6931471805599454
성지:1.4054651081081644
성탄:1.6931471805599454
성탄절:1.1823215567939547
성현:1.6931471805599454
성형:2.0986122886681096
성형외과:2.0986122886681096
세:1.1823215567939547
세계:1.1823215567939547
세계사:1.6931471805599454
세금:1.4054651081081644
세네:1.6931471805599454
세라믹:1.1823215567939547
세르비아:1.6931471805599454
세무:1.6931471805599454
세미나:1.0
세부:1.4054651081081644
세상:1.4054651081081644
세션:1.0
세우:1.0
세이:2.0986122886681096
세인트:1.6931471805599454
세일:1.6931471805599454
세일즈:2.0986122886681096
세제:2.0986122886681096
세종:1.1823215567939547
세종시:1.6931471805599454
세차:1.6931471805599454
세탁:1.4054651081081644
세탁기:1.6931471805599454
세트:1.4054651081081644
센터:1.1823215567939547
셀프:1.1823215567939547
셔틀:2.0986122886681096
셔틀버스:1.6931471805599454
셰프:1.6931471805599454
소:1.0
소개:1.0
소개팅:1.6931471805599454
소고기:1.4054651081081644
소규모:1.1823215567939547
소극장:1.6931471805599454
소리:1.4054651081081644
소망:1.6931471805599454
소박:2.0986122886681096
소비자:1.6931471805599454
소설:1.1823215567939547
소셜:1.1823215567939547
소소:1.6931471805599454
소송:2.0986122886681096
소식:1.4054651081081644
소아:2.0986122886681096
소주:1.6931471805599454
소중:1.4054651081081644
소통:1.0
소파:1.6931471805599454
소포:2.0986122886681096
소품:1.1823215567939547
소풍:1.4054651081081644
소프트웨어:1.4054651081081644
소형:1.1823215567939547
소화기:1.6931471805599454
속:1.1823215567939547
속눈썹:2.0986122886681096
속도:1.4054651081081644
속의:1.4054651081081644
속초:1.4054651081081644
손:1.4054651081081644
손님:1.6931471805599454
손목:1.4054651081081644
손수건:1.6931471805599454
손자:2.0986122886681096
손주:2.0986122886681096
손톱:1.6931471805599454
솔로:1.4054651081081644
솔루션:1.6931471805599454
송:1.0
송년:1.1823215567939547
송도:1.4054651081081644
송정:1.6931471805599454
쇼:1.0
쇼핑:1.0
쇼핑몰:1.1823215567939547
수:1.4054651081081644
수강:1.1823215567939547
수공:1.4054651081081644
수납:1.4054651081081644
수능:1.4054651081081644
수다:2.0986122886681096
수도:2.0986122886681096
수도권:1.6931471805599454
수도원:1.4054651081081644
수락:2.0986122886681096
수련:2.0986122886681096
수렴:1.6931471805599454
수령:1.1823215567939547
수리:1.0
수립:1.0
수면:1.4054651081081644
수목원:1.6931471805599454
수빈:2.0986122886681096
수상:1.1823215567939547
수선:2.0986122886681096
수수료:1.4054651081081644
수술:1.6931471805599454
수업:1.1823215567939547
수여:1.6931471805599454
수연:2.0986122886681096
수영:1.1823215567939547
수영장:1.1823215567939547
수요:1.6931471805599454
수요일:1.1823215567939547
수원:1.4054651081081644
수익:2.0986122886681096
수정:1.0
수제:1.4054651081081644
수족관:1.4054651081081644
수지:1.6931471805599454
수진:1.6931471805599454
수집:1.0
수채:1.1823215567939547
수칙:1.6931471805599454
수학:1.1823215567939547
수행:1.1823215567939547
수현:1.1823215567939547
수호:2.0986122886681096
수화:1.4054651081081644
수확:1.1823215567939547
숙:1.4054651081081644
숙박:1.0
숙소:1.4054651081081644
숙제:1.6931471805599454
숙지:1.4054651081081644
순간:1.1823215567939547
순례:1.4054651081081644
순서:1.6931471805599454
순수:1.4054651081081644
순창:1.4054651081081644
순천:1.4054651081081644
술:2.0986122886681096
술자리:2.0986122886681096
술집:1.6931471805599454
숨:1.1823215567939547
숨겨진:1.4054651081081644
숲:1.4054651081081644
숲길:1.6931471805599454
쉐:1.4054651081081644
슈:1.4054651081081644
슈퍼:1.1823215567939547
스:1.1823215567939547
스낵:1.4054651081081644
스냅:1.6931471805599454
스노:1.4054651081081644
스노우:1.1823215567939547
스리랑카:1.6931471805599454
스마트:1.4054651081081644
스마트폰:1.4054651081081644
스무:1.6931471805599454
스승:1.6931471805599454
스웨덴:1.6931471805599454
스위스:1.6931471805599454
스위치:2.0986122886681096
스위트:1.6931471805599454
스카이:1.1823215567939547
스케이트:1.1823215567939547
스케이팅:1.6931471805599454
스케일:2.0986122886681096
스케줄:1.0
스케치:1.6931471805599454
스코틀랜드:1.6931471805599454
스쿠:1.1823215567939547
스쿨:1.4054651081081644
스쿼:1.4054651081081644
스크린:1.6931471805599454
스키:1.1823215567939547
스키장:1.1823215567939547
스킨:1.6931471805599454
스킨케어:1.4054651081081644
스킬:1.4054651081081644
스타:1.0
스타일:1.1823215567939547
스타일링:1.4054651081081644
스타트업:1.1823215567939547
스터디:1.0
스테이크:1.6931471805599454
스토리:1.1823215567939547
스토리텔링:1.6931471805599454
스톡홀름:1.6931471805599454
스튜디오:1.1823215567939547
스트:1.1823215567939547
스트레스:1.0
스트레칭:1.4054651081081644
스트리밍:1.4054651081081644
스트리트:1.6931471805599454
스파:1.1823215567939547
스페셜:1.1823215567939547
스페인:1.1823215567939547
스페인어:1.4054651081081644
스포츠:1.0
스프:1.6931471805599454
스프링:1.4054651081081644
스피:1.1823215567939547
스피드:1.4054651081081644
스피커:1.4054651081081644
슬라이드:1.4054651081081644
슬로바키아:1.6931471805599454
슬로베니아:1.6931471805599454
습관:1.1823215567939547
승:1.4054651081081644
승마:1.1823215567939547
승인:1.6931471805599454
승진:1.6931471805599454
시:1.0
시각:1.4054651081081644
시간:1.0
시간표:1.1823215567939547
시계:2.0986122886681096
시골:1.4054651081081644
시기:1.4054651081081644
시나리오:2.0986122886681096
시내:1.4054651081081644
시내버스:1.6931471805599454
시네마:1.6931471805599454
시댁:2.0986122886681096
시도:1.0
시드니:1.6931471805599454
시력:2.0986122886681096
시리즈:1.6931471805599454
시뮬레이션:2.0986122886681096
시민:1.1823215567939547
시사:2.0986122886681096
시사회:1.6931471805599454
시상식:1.4054651081081644
시설:1.1823215567939547
시술:2.0986122886681096
시스템:1.4054651081081644
시식:1.6931471805599454
시애틀:1.6931471805599454
시어머니:1.6931471805599454
시에:1.4054651081081644
시연:1.0
시외버스:2.0986122886681096
시우:2.0986122886681096
시원:1.4054651081081644
시작:1.0
시장:1.0
시절:1.6931471805599454
시즌:1.0
시청:1.1823215567939547
시카고:1.4054651081081644
시티:1.1823215567939547
시합:1.6931471805599454
시험:1.1823215567939547
식구:2.0986122886681096
식기:1.6931471805599454
식단:1.6931471805599454
식당:1.4054651081081644
식료품:2.0986122886681096
식물:1.0
식물원:1.1823215567939547
식사:1.0
식탁:1.6931471805599454
식품:1.4054651081081644
신:1.1823215567939547
신경:1.1823215567939547
신고:1.4054651081081644
신규:1.0
신기:1.1823215567939547
신나:1.1823215567939547
신년:1.1823215567939547
신도:1.6931471805599454
신랑:1.6931471805599454
신문:1.4054651081081644
신발:1.1823215567939547
신부:1.6931471805599454
신비:1.4054651081081644
신사동:1.6931471805599454
신사업:2.0986122886681096
신생:2.0986122886681096
신생아:1.4054651081081644
신선:1.1823215567939547
신시:1.6931471805599454
신앙:2.0986122886681096
신입:1.4054651081081644
신입생:1.4054651081081644
신작:1.1823215567939547
신장:1.4054651081081644
신전:2.0986122886681096
신제:1.0
신청:1.0
신청서:1.4054651081081644
신체:1.6931471805599454
신촌:1.6931471805599454
신혼:1.1823215567939547
신화:1.4054651081081644
신흥:1.6931471805599454
실내:1.0
실무:2.0986122886681096
실습:1.1823215567939547
실시간:1.6931471805599454
실용:1.6931471805599454
실적:2.0986122886681096
실천:1.1823215567939547
실패:1.6931471805599454
실행:1.1823215567939547
실험:1.1823215567939547
실험실:1.4054651081081644
심:1.4054651081081644
심기:1.6931471805599454
심리:1.1823215567939547
심리학:1.1823215567939547
심사:1.6931471805599454
심야:1.4054651081081644
심장:1.6931471805599454
심포지엄:1.6931471805599454
심플:1.4054651081081644
심혈:2.0986122886681096
심화:1.6931471805599454
싱가포르:1.6931471805599454
싱글:1.1823215567939547
싸:2.0986122886681096
싸이:1.4054651081081644
쌀:1.4054651081081644
쌀국수:1.6931471805599454
쌍:1.6931471805599454
썰매:1.6931471805599454
쓰:1.4054651081081644
쓰레기:2.0986122886681096
씨:1.4054651081081644
아:1.0
아기:1.4054651081081644
아내:1.6931471805599454
아늑:1.6931471805599454
아동:1.4054651081081644
아들:1.4054651081081644
아랍에미리트:1.6931471805599454
아래:1.4054651081081644
아로마:1.1823215567939547
아르바이트:1.6931471805599454
아르헨티나:1.6931471805599454
아름다운:1.1823215567939547
아름다움:1.4054651081081644
아마존:1.4054651081081644
아마추어:1.4054651081081644
아버님:1.6931471805599454
아버지:1.4054651081081644
아부:2.0986122886681096
아빠:1.1823215567939547
아산:1.4054651081081644
아시아:1.1823215567939547
아시아나항공:2.0986122886681096
아시안:1.6931471805599454
아웃:1.6931471805599454
아웃도어:1.4054651081081644
아워:1.6931471805599454
아이:1.0
아이돌:1.4054651081081644
아이디어:1.0
아이스:1.0
아이스크림:1.4054651081081644
아이스하키:1.6931471805599454
아이슬란드:1.6931471805599454
아이유:1.4054651081081644
아이템:1.4054651081081644
아이패드:2.0986122886681096
아일랜드:1.6931471805599454
아침:1.0
아카:1.6931471805599454
아카데미:1.4054651081081644
아쿠아:1.4054651081081644
아테네:1.6931471805599454
아트:1.0
아티스트:1.4054651081081644
아파트:1.1823215567939547
아프리카:1.1823215567939547
악기:1.4054651081081644
악세:1.6931471805599454
안:1.0
안경:1.4054651081081644
안과:2.0986122886681096
안구:2.0986122886681096
안내:1.0
안동:1.4054651081081644
안락:1.4054651081081644
안마:1.6931471805599454
안면:1.6931471805599454
안부:1.6931471805599454
안산:1.4054651081081644
안성:1.4054651081081644
안양:1.4054651081081644
안전:1.1823215567939547
안티:1.4054651081081644
않:1.1823215567939547
알:1.1823215567939547
알고리즘:2.0986122886681096
알람:1.6931471805599454
알래스카:1.6931471805599454
알레르기:1.6931471805599454
알림:1.0
알바:1.1823215567939547
알제리:1.6931471805599454
알프스:1.4054651081081644
암:1.4054651081081644
암벽:1.6931471805599454
암스테르담:1.6931471805599454
압구정:1.4054651081081644
앙:1.4054651081081644
앙코르:1.6931471805599454
앞:1.0
애:1.0
애견:1.1823215567939547
애니메이션:1.1823215567939547
애슐리:1.6931471805599454
애완:1.4054651081081644
애인:2.0986122886681096
애프터:1.6931471805599454
애플:1.4054651081081644
애호가:1.6931471805599454
액:1.6931471805599454
액세서리:1.6931471805599454
액자:1.4054651081081644
앤:1.1823215567939547
앨범:1.0
앱:1.1823215567939547
야:1.1823215567939547
야간:1.0
야경:1.4054651081081644
야구:1.4054651081081644
야근:1.6931471805599454
야시장:1.4054651081081644
야식:1.6931471805599454
야영:1.4054651081081644
야외:1.1823215567939547
야유:1.4054651081081644
약:1.1823215567939547
약물:1.6931471805599454
약속:1.0
양:1.1823215567939547
양구:1.4054651081081644
양궁:1.6931471805599454
양말:1.6931471805599454
양산:1.4054651081081644
양성:2.0986122886681096
양식:1.1823215567939547
양양:1.4054651081081644
양주:1.4054651081081644
양평:1.4054651081081644
어:1.0
어깨:1.6931471805599454
어드벤처:1.4054651081081644
어르신:2.0986122886681096
어린:1.6931471805599454
어린이:1.0
어린이집:1.1823215567939547
어머니:1.4054651081081644
어머님:2.0986122886681096
어버이날:2.0986122886681096
어워드:2.0986122886681096
어촌:1.4054651081081644
어플:1.1823215567939547
어학:1.1823215567939547
어항:2.0986122886681096
언니:1.4054651081081644
언덕:1.1823215567939547
언론:1.6931471805599454
언어:1.0
언어학:1.6931471805599454
얼굴:1.6931471805599454
얼리:1.6931471805599454
얼음:1.4054651081081644
엄마:1.0
업:1.1823215567939547
업계:1.6931471805599454
업그레이드:1.4054651081081644
업데이트:1.4054651081081644
업무:1.1823215567939547
업체:1.1823215567939547
없:1.0
없이:1.6931471805599454
에:1.0
에너지:1.0
에버랜드:1.4054651081081644
에스:1.4054651081081644
에어:1.1823215567939547
에어부산:2.0986122886681096
에어컨:1.6931471805599454
에코:1.0
에콰도르:1.6931471805599454
에티오피아:1.6931471805599454
엑스포:1.1823215567939547
엔:1.4054651081081644
엔지니어:2.0986122886681096
엔지니어링:1.6931471805599454
엔터:1.0
엘:1.4054651081081644
엘리:1.6931471805599454
엠:1.4054651081081644
여동생:2.0986122886681096
여드름:2.0986122886681096
여름:1.0
여름철:1.4054651081081644
여름휴가:1.1823215567939547
여부:1.1823215567939547
여성:1.1823215567939547
여수:1.4054651081081644
여유:1.1823215567939547
여의도:1.4054651081081644
여자:1.6931471805599454
여정:1.1823215567939547
여주:1.4054651081081644
여행:1.0
여행자:1.6931471805599454
여행지:1.4054651081081644
역량:2.0986122886681096
역사:1.0
역삼동:1.6931471805599454
연:1.1823215567939547
연간:1.0
연결:1.1823215567939547
연계:1.4054651081081644
연구:1.1823215567939547
연구소:1.4054651081081644
연구자:2.0986122886681096
연구회:2.0986122886681096
연극:1.0
연기:1.1823215567939547
연락:1.0
연락처:1.0
연례:1.6931471805599454
연말:1.0
연수:1.4054651081081644
연습:1.0
연인:1.4054651081081644
연장:1.4054651081081644
연주:1.1823215567939547
연주회:1.1823215567939547
연차:2.0986122886681096
연천:1.6931471805599454
연체:2.0986122886681096
연합:1.6931471805599454
연회:1.1823215567939547
연휴:1.1823215567939547
연희:2.0986122886681096
열:1.4054651081081644
열기:1.4054651081081644
열대:1.4054651081081644
열정:1.1823215567939547
열차:2.0986122886681096
염색:1.4054651081081644
엽:2.0986122886681096
영:1.4054651081081644
영광:1.4054651081081644
영국:1.4054651081081644
영덕:1.4054651081081644
영상:1.0
영수증:1.4054651081081644
영암:1.6931471805599454
영양:1.1823215567939547
영양제:1.6931471805599454
영어:1.1823215567939547
영업:1.6931471805599454
영원:1.6931471805599454
영월:1.4054651081081644
영유:2.0986122886681096
영일:1.6931471805599454
영재:1.6931471805599454
영적:2.0986122886681096
영주:1.4054651081081644
영혼:1.6931471805599454
영화:1.0
영화관:1.1823215567939547
영화제:1.0
영희:1.6931471805599454
예:1.1823215567939547
예매:1.4054651081081644
예방:1.1823215567939547
예배:1.6931471805599454
예비:1.0
예쁜:1.4054651081081644
예산:1.0
예상:1.1823215567939547
예수:1.6931471805599454
예술:1.0
예술가:1.4054651081081644
예식:1.6931471805599454
예약:1.0
예정:1.1823215567939547
예체능:2.0986122886681096
예측:2.0986122886681096
옛:1.6931471805599454
옛날:1.4054651081081644
오:1.0
오늘:1.1823215567939547
오대:2.0986122886681096
오디오:1.1823215567939547
오락실:1.6931471805599454
오래:1.6931471805599454
오랜:1.4054651081081644
오랜만:1.6931471805599454
오로라:1.4054651081081644
오류:1.4054651081081644
오리엔:1.4054651081081644
오만:1.6931471805599454
오버:1.6931471805599454
오브:1.6931471805599454
오븐:1.6931471805599454
오빠:1.6931471805599454
오사카:1.6931471805599454
오션:1.4054651081081644
오스트리아:1.4054651081081644
오월:2.0986122886681096
오일:1.1823215567939547
오전:1.1823215567939547
오케스트라:1.1823215567939547
오클랜드:2.0986122886681096
오키나와:2.0986122886681096
오토:1.6931471805599454
오토바이:1.1823215567939547
오페라:1.4054651081081644
오프닝:1.4054651081081644
오프라인:1.1823215567939547
오픈:1.0
오피스:1.1823215567939547
오후:1.1823215567939547
옥상:1.6931471805599454
옥천:1.6931471805599454
온:1.0
온라인:1.0
온천:1.1823215567939547
올:1.1823215567939547
올드:1.4054651081081644
올레:1.6931471805599454
올림픽:1.1823215567939547
올해:1.4054651081081644
옵션:1.6931471805599454
옷:1.1823215567939547
옷장:1.6931471805599454
와:1.4054651081081644
와이:1.1823215567939547
와인:1.1823215567939547
왁:1.6931471805599454
완도:1.4054651081081644
완료:1.0
완벽:1.1823215567939547
완주:1.4054651081081644
왕복:1.6931471805599454
외:1.0
외교:1.6931471805599454
외국:1.1823215567939547
외국어:1.1823215567939547
외국인:1.6931471805599454
외부:1.4054651081081644
외삼촌:2.0986122886681096
외식:1.4054651081081644
외출:1.6931471805599454
외할:2.0986122886681096
외할머니:2.0986122886681096
요가:1.0
요구사항:1.6931471805599454
요금:1.6931471805599454
요르단:1.6931471805599454
요리:1.0
요약:1.6931471805599454
요청:1.0
요트:1.4054651081081644
욕실:2.0986122886681096
용:1.6931471805599454
용산:1.4054651081081644
용인:1.4054651081081644
용품:1.4054651081081644
우:1.1823215567939547
우도:2.0986122886681096
우루과이:2.0986122886681096
우리:1.1823215567939547
우수:1.4054651081081644
우울증:2.0986122886681096
우정:1.1823215567939547
우주:1.1823215567939547
우즈베키스탄:1.6931471805599454
우체국:1.6931471805599454
우크라이나:1.6931471805599454
운동:1.1823215567939547
운영:1.1823215567939547
운전:1.1823215567939547
울:1.6931471805599454
울릉도:1.4054651081081644
울산:1.1823215567939547
울진:1.4054651081081644
웅진:2.0986122886681096
워:1.0
워싱턴:1.6931471805599454
워크:1.0
워크숍:1.1823215567939547
워킹:1.1823215567939547
워터:1.1823215567939547
원:1.1823215567939547
원가:1.6931471805599454
원격:1.6931471805599454
원리:2.0986122886681096
원예:1.1823215567939547
원주:1.4054651081081644
월:1.0
월간:1.1823215567939547
월급:1.4054651081081644
월드:1.4054651081081644
월드컵:1.4054651081081644
월세:1.6931471805599454
월요일:1.1823215567939547
웨:1.4054651081081644
웨딩:1.4054651081081644
웨이:1.4054651081081644
웨이트:1.4054651081081644
웰:1.0
웹:1.0
위:1.0
위기:1.6931471805599454
위반:1.6931471805599454
위생:1.4054651081081644
위치:1.0
위한:1.0
위험:1.6931471805599454
유:1.0
유기농:1.4054651081081644
유나:2.0986122886681096
유니버:1.6931471805599454
유도:1.4054651081081644
유람선:1.4054651081081644
유럽:1.0
유료:1.4054651081081644
유리:1.4054651081081644
유명:1.4054651081081644
유모차:1.4054651081081644
유산:1.1823215567939547
유산소:1.6931471805599454
유수:1.6931471805599454
유아:1.1823215567939547
유연:1.4054651081081644
유의:1.4054651081081644
유적:2.0986122886681096
유적지:1.4054651081081644
유지:1.0
유진:2.0986122886681096
유치:1.6931471805599454
유치원:1.1823215567939547
유통:1.6931471805599454
유튜브:1.4054651081081644
유행:1.4054651081081644
유화:2.0986122886681096
육성:1.6931471805599454
윤:1.6931471805599454
윤리:1.4054651081081644
윤정:1.6931471805599454
융합:1.4054651081081644
은:1.6931471805599454
은사:1.6931471805599454
은서:2.0986122886681096
은수:2.0986122886681096
은영:2.0986122886681096
은지:2.0986122886681096
은퇴:1.6931471805599454
은행:1.4054651081081644
을지로:1.6931471805599454
음료:1.4054651081081644
음료수:2.0986122886681096
음성:1.1823215567939547
음식:1.0
음식점:1.4054651081081644
음악:1.0
음악회:1.1823215567939547
음향:1.4054651081081644
응급:1.4054651081081644
응대:1.6931471805599454
응용:2.0986122886681096
응원:1.6931471805599454
의:1.4054651081081644
의견:1.4054651081081644
의료:1.0
의료기:1.6931471805599454
의류:1.4054651081081644
의미:1.4054651081081644
의사:1.6931471805599454
의사소통:1.6931471805599454
의상:1.1823215567939547
의성:1.6931471805599454
의자:1.6931471805599454
의정부:1.4054651081081644
의학:1.6931471805599454
이:1.0
이국:1.4054651081081644
이대:1.6931471805599454
이동:1.0
이라크:1.6931471805599454
이란:1.6931471805599454
이러:2.0986122886681096
이력서:1.6931471805599454
이론:1.4054651081081644
이름:1.4054651081081644
이메일:1.1823215567939547
이모:1.6931471805599454
이문:1.6931471805599454
이미지:1.6931471805599454
이민:1.4054651081081644
이발:1.4054651081081644
이번:1.4054651081081644
이벤트:1.0
이별:2.0986122886681096
이불:1.6931471805599454
이브:1.4054651081081644
이비:1.6931471805599454
이사:1.1823215567939547
이사회:1.6931471805599454
이상:1.1823215567939547
이색:1.6931471805599454
이수:1.4054651081081644
이슈:1.1823215567939547
이스:1.6931471805599454
이스라엘:1.6931471805599454
이스탄불:1.6931471805599454
이야기:1.1823215567939547
이용:1.0
이용료:1.6931471805599454
이웃:1.4054651081081644
이유:1.1823215567939547
이유식:1.4054651081081644
이은:1.6931471805599454
이자:1.4054651081081644
이전:1.1823215567939547
이지:1.6931471805599454
이집트:1.1823215567939547
이천:1.4054651081081644
이케아:1.4054651081081644
이코노미:1.6931471805599454
이탈:1.4054651081081644
이탈리아:1.1823215567939547
이태원:1.4054651081081644
이해:1.1823215567939547
이해관계:2.0986122886681096
이행:2.0986122886681096
이현:2.0986122886681096
이후:1.4054651081081644
익산:1.4054651081081644
익스:1.1823215567939547
인:1.0
인간:1.1823215567939547
인공지능:1.4054651081081644
인권:1.6931471805599454
인기:1.1823215567939547
인도:1.1823215567939547
인도네시아:1.1823215567939547
인디:1.6931471805599454
인력:1.6931471805599454
인문학:1.6931471805599454
인물:1.6931471805599454
인사:1.1823215567939547
인사동:1.4054651081081644
인상:1.4054651081081644
인생:1.1823215567939547
인성:1.6931471805599454
인쇄:1.4054651081081644
인수:1.6931471805599454
인연:2.0986122886681096
인원:1.1823215567939547
인재:2.0986122886681096
인적:2.0986122886681096
인제:1.4054651081081644
인증:1.0
인지:1.6931471805599454
인천:1.1823215567939547
인터:1.0
인터내셔널:1.6931471805599454
인터넷:1.1823215567939547
인터뷰:1.0
인턴:1.6931471805599454
인테리어:1.1823215567939547
인프라:2.0986122886681096
인플루엔자:2.0986122886681096
인형:1.4054651081081644
일:1.0
일기:1.4054651081081644
일대:1.4054651081081644
일러스트:1.1823215567939547
일몰:1.4054651081081644
일반:1.4054651081081644
일본:1.1823215567939547
일본식:1.6931471805599454
일본어:1.4054651081081644
일산:1.6931471805599454
일상:1.1823215567939547
일식:1.6931471805599454
일요일:1.0
일자리:2.0986122886681096
일정:1.0
일주:1.6931471805599454
일주일:1.6931471805599454
일출:1.1823215567939547
읽:1.4054651081081644
임:1.1823215567939547
임금:1.4054651081081644
임박:1.4054651081081644
임산부:2.0986122886681096
임신:1.6931471805599454
임원:1.6931471805599454
입:1.4054651081081644
입금:1.1823215567939547
입력:1.6931471805599454
입문:1.4054651081081644
입사:1.4054651081081644
입시:2.0986122886681096
입장:1.6931471805599454
입장권:1.6931471805599454
입주:1.1823215567939547
입학:1.4054651081081644
입학식:1.4054651081081644
잇몸:2.0986122886681096
있:1.0
잊:1.0
자:1.0
자가용:1.6931471805599454
자격증:1.1823215567939547
자궁:2.0986122886681096
자금:1.6931471805599454
자기:1.0
자녀:1.1823215567939547
자동:1.4054651081081644
자동차:1.0
자동화:2.0986122886681096
자료:1.4054651081081644
자리:1.6931471805599454
자매:2.0986122886681096
자메이카:1.6931471805599454
자문:1.4054651081081644
자바:1.6931471805599454
자산:1.6931471805599454
자산관리:1.6931471805599454
자선:1.6931471805599454
자세:1.1823215567939547
자신:1.6931471805599454
자신감:1.1823215567939547
자연:1.0
자연사:1.4054651081081644
자원:1.0
자유:1.0
자율:2.0986122886681096
자전거:1.1823215567939547
자카르타:1.6931471805599454
작:1.0
작가:1.1823215567939547
작곡:1.1823215567939547
작별:2.0986122886681096
작성:1.0
작업:1.1823215567939547
작품:1.1823215567939547
잔:1.4054651081081644
잔디:1.4054651081081644
잔치:1.6931471805599454
잠실:1.4054651081081644
잡:1.0
잡지:2.0986122886681096
장:1.4054651081081644
장거리:1.1823215567939547
장기:1.0
장난감:1.6931471805599454
장례:1.6931471805599454
장례식:1.4054651081081644
장례식장:1.6931471805599454
장모:1.4054651081081644
장미:1.4054651081081644
장보:1.6931471805599454
장비:1.0
장성:1.6931471805599454
장소:1.0
장수:1.4054651081081644
장식:1.4054651081081644
장애:1.6931471805599454
장애인:1.1823215567939547
장인:1.6931471805599454
장터:1.6931471805599454
장학금:1.1823215567939547
장흥:1.4054651081081644
재:1.0
재개:1.1823215567939547
재고:1.4054651081081644
재난:1.6931471805599454
재료:1.4054651081081644
재무:1.4054651081081644
재발:1.1823215567939547
재배치:1.4054651081081644
재산:1.6931471805599454
재생:1.4054651081081644
재정:1.4054651081081644
재즈:1.4054651081081644
재테크:1.4054651081081644
재판:1.6931471805599454
재활:1.4054651081081644
재회:1.6931471805599454
저:1.1823215567939547
저녁:1.0
저렴:1.1823215567939547
저작권:1.6931471805599454
저장:1.1823215567939547
적용:1.6931471805599454
적응:1.4054651081081644
전:1.0
전공:1.4054651081081644
전교:2.0986122886681096
전국:1.0
전기:1.1823215567939547
전기차:1.1823215567939547
전남:1.1823215567939547
전달:1.4054651081081644
전도:2.0986122886681096
전동:1.1823215567939547
전등:1.4054651081081644
전라남도:1.4054651081081644
전라도:1.4054651081081644
전라북도:1.6931471805599454
전략:1.0
전력:2.0986122886681096
전망:1.1823215567939547
전망대:1.4054651081081644
전문:1.0
전문가:1.0
전문의:2.0986122886681096
전문점:1.4054651081081644
전북:1.1823215567939547
전사:1.6931471805599454
전설:1.6931471805599454
전세:1.1823215567939547
전시:1.0
전시회:1.0
전신:1.6931471805599454
전역:1.6931471805599454
전용:1.1823215567939547
전원:1.4054651081081644
전자:1.1823215567939547
전자기:1.1823215567939547
전자레인지:1.6931471805599454
전자책:1.6931471805599454
전주:1.4054651081081644
전철:2.0986122886681096
전체:1.1823215567939547
전통:1.0
전통문화:1.1823215567939547
전화:1.0
전환:1.1823215567939547
절:1.6931471805599454
절감:2.0986122886681096
절차:1.4054651081081644
절친:2.0986122886681096
젊:1.6931471805599454
점:1.4054651081081644
점검:1.0
점심:1.1823215567939547
접속:1.4054651081081644
접수:1.4054651081081644
접종:2.0986122886681096
정:1.1823215567939547
정규:1.4054651081081644
정글:1.4054651081081644
정기:1.0
정돈:2.0986122886681096
정동:1.4054651081081644
정리:1.0
정모:2.0986122886681096
정민:1.6931471805599454
정보:1.0
정부:1.4054651081081644
정비:1.0
정산:1.1823215567939547
정선:1.1823215567939547
정수:1.6931471805599454
정수기:2.0986122886681096
정신:1.1823215567939547
정신과:2.0986122886681096
정우:1.4054651081081644
정원:1.1823215567939547
정읍:2.0986122886681096
정정:2.0986122886681096
정책:1.4054651081081644
정치:1.6931471805599454
정치학:2.0986122886681096
정통:1.6931471805599454
정현:2.0986122886681096
정형:2.0986122886681096
제:1.0
제거:1.4054651081081644
제고:2.0986122886681096
제공:1.0
제대:1.4054651081081644
제도:1.4054651081081644
제사:1.6931471805599454
제시:1.6931471805599454
제안:1.4054651081081644
제안서:1.6931471805599454
제외:2.0986122886681096
제작:1.0
제조:1.1823215567939547
제주:1.1823215567939547
제주도:1.0
제천:1.4054651081081644
제출:1.6931471805599454
제품:1.1823215567939547
제회:1.6931471805599454
제휴:1.6931471805599454
조:1.1823215567939547
조각:1.4054651081081644
조개:1.4054651081081644
조건:1.6931471805599454
조경:1.1823215567939547
조기:1.1823215567939547
조깅:1.4054651081081644
조달:2.0986122886681096
조리:1.4054651081081644
조립:1.6931471805599454
조명:1.0
조문:1.4054651081081644
조별:1.6931471805599454
조부모:1.6931471805599454
조사:1.1823215567939547
조상:2.0986122886681096
조선:1.1823215567939547
조성:1.1823215567939547
조식:1.4054651081081644
조용:1.1823215567939547
조율:1.1823215567939547
조절:1.4054651081081644
조정:1.0
조조:1.4054651081081644
조지아:2.0986122886681096
조직:1.6931471805599454
조찬:1.4054651081081644
조치:1.1823215567939547
조카:1.4054651081081644
조항:2.0986122886681096
조화:1.1823215567939547
조회:1.4054651081081644
족:1.1823215567939547
족발:1.6931471805599454
졸업:1.1823215567939547
졸업식:1.1823215567939547
종:1.1823215567939547
종교:1.1823215567939547
종로:1.4054651081081644
종료:1.0
종이:1.1823215567939547
종합:1.4054651081081644
좋:1.0
좌석:1.6931471805599454
주:1.0
주간:1.0
주기:1.1823215567939547
주년:1.4054651081081644
주름:2.0986122886681096
주말:1.0
주문:1.1823215567939547
주민:1.4054651081081644
주방:1.1823215567939547
주변:1.0
주사:2.0986122886681096
주식:1.6931471805599454
주요:1.1823215567939547
주의:1.1823215567939547
주일:2.0986122886681096
주제:1.1823215567939547
주주:2.0986122886681096
주중:1.0
주차:1.0
주차장:1.1823215567939547
주최:1.1823215567939547
주택:1.6931471805599454
주희:2.0986122886681096
죽:1.6931471805599454
준:1.4054651081081644
준비:1.0
준비물:1.0
준수:1.4054651081081644
줄:1.6931471805599454
줄이:1.6931471805599454
줌:1.1823215567939547
중:1.1823215567939547
중간:1.4054651081081644
중고:1.1823215567939547
중국:1.1823215567939547
중국어:1.6931471805599454
중급:1.4054651081081644
중동:1.4054651081081644
중등:2.0986122886681096
중세:1.4054651081081644
중소기업:2.0986122886681096
중식:1.6931471805599454
중심:1.4054651081081644
중앙:1.4054651081081644
중요:1.0
중이:2.0986122886681096
중학교:1.1823215567939547
중학생:1.4054651081081644
즐거운:1.0
즐거움:1.4054651081081644
즐기:1.1823215567939547
증강현실:1.6931471805599454
증대:2.0986122886681096
증정:1.4054651081081644
증진:1.0
지:1.4054651081081644
지갑:1.6931471805599454
지구:1.4054651081081644
지급:1.6931471805599454
지내:1.6931471805599454
지능:2.0986122886681096
지도:1.1823215567939547
지리:1.6931471805599454
지리산:1.4054651081081644
지방:1.0
지사:1.6931471805599454
지산:1.6931471805599454
지속:1.1823215567939547
지수:2.0986122886681096
지식:1.4054651081081644
지역:1.0
지연:1.1823215567939547
지우:1.6931471805599454
지원:1.0
지원자:2.0986122886681096
지인:1.6931471805599454
지적:1.6931471805599454
지점:1.1823215567939547
지중해:1.4054651081081644
지하철:1.4054651081081644
지현:2.0986122886681096
지혜:1.6931471805599454
지훈:2.0986122886681096
직:1.4054651081081644
직거래:1.6931471805599454
직무:2.0986122886681096
직업:1.4054651081081644
직원:1.1823215567939547
직장:1.1823215567939547
직장인:1.6931471805599454
직접:1.1823215567939547
진:1.4054651081081644
진단:1.6931471805599454
진도:1.1823215567939547
진로:1.4054651081081644
진료:2.0986122886681096
진수:2.0986122886681096
진에어:2.0986122886681096
진입:2.0986122886681096
진주:1.4054651081081644
진천:2.0986122886681096
진출:2.0986122886681096
진학:2.0986122886681096
진해:1.4054651081081644
진행:1.0
질문:1.0
질병:1.4054651081081644
질의:1.6931471805599454
질환:1.6931471805599454
짐:1.4054651081081644
집:1.0
집들이:1.4054651081081644
집안:1.6931471805599454
집안일:2.0986122886681096
집중:1.1823215567939547
집중력:1.1823215567939547
집회:2.0986122886681096
짜장면:1.6931471805599454
찍:1.1823215567939547
차:1.0
차고:2.0986122886681096
차량:1.4054651081081644
차례:2.0986122886681096
차분:1.6931471805599454
차세대:2.0986122886681096
차이나:1.4054651081081644
찬양:2.0986122886681096
참:1.4054651081081644
참가:1.0
참가자:1.1823215567939547
참고:1.4054651081081644
참관:1.6931471805599454
참석:1.0
참석자:1.6931471805599454
참여:1.0
창:1.4054651081081644
창고:1.6931471805599454
창녕:1.4054651081081644
창문:2.0986122886681096
창업:1.4054651081081644
창원:1.4054651081081644
창의:1.4054651081081644
창의력:1.4054651081081644
창작:1.1823215567939547
창조적:1.6931471805599454
창출:1.1823215567939547
찾:1.4054651081081644
찾기:1.0
찾아:1.1823215567939547
채:1.4054651081081644
채널:1.6931471805599454
채소:1.6931471805599454
채식:1.4054651081081644
채용:1.6931471805599454
채팅:1.1823215567939547
책:1.1823215567939547
책상:1.6931471805599454
책임:2.0986122886681096
책장:2.0986122886681096
챌린지:1.0
챔피언:1.6931471805599454
챔피언십:1.4054651081081644
챙기:1.6931471805599454
처:2.0986122886681096
처리:1.0
처방:1.6931471805599454
척추:1.6931471805599454
천:1.1823215567939547
천문:1.6931471805599454
천문대:1.1823215567939547
천문학:1.4054651081081644
천식:2.0986122886681096
천안:1.4054651081081644
천연:1.0
천장:2.0986122886681096
천주교:1.6931471805599454
철:1.1823215567939547
철도:1.1823215567939547
철수:2.0986122886681096
철학:1.4054651081081644
첨:1.6931471805599454
첨단:2.0986122886681096
첫:1.1823215567939547
청:1.0
청계:1.6931471805599454
청계천:1.4054651081081644
청년:1.4054651081081644
청담동:1.6931471805599454
청도:1.4054651081081644
청소:1.1823215567939547
청소기:2.0986122886681096
청소년:1.0
청송:1.6931471805599454
청약:1.4054651081081644
청정:1.0
청주:1.4054651081081644
청취:1.4054651081081644
체결:1.4054651081081644
체계:2.0986122886681096
체력:1.4054651081081644
체스:1.1823215567939547
체육:1.4054651081081644
체육관:1.4054651081081644
체조:1.4054651081081644
체중:1.6931471805599454
체지방:1.6931471805599454
체코:1.6931471805599454
체크:1.1823215567939547
체크인:1.1823215567939547
체험:1.0
체형:1.6931471805599454
초:1.1823215567939547
초급:1.6931471805599454
초대:1.1823215567939547
초등:1.4054651081081644
초등학생:2.0986122886681096
초밥:1.6931471805599454
초보:1.0
초상화:1.4054651081081644
초안:2.0986122886681096
초음파:2.0986122886681096
초청:1.4054651081081644
초코:1.4054651081081644
초콜릿:1.1823215567939547
촉진:2.0986122886681096
촛불:2.0986122886681096
총:1.6931471805599454
총회:1.1823215567939547
촬영:1.0
최:1.1823215567939547
최고:1.0
최민:1.4054651081081644
최신:1.0
최적화:1.6931471805599454
최종:1.1823215567939547
추:1.4054651081081644
추가:1.4054651081081644
추도:2.0986122886681096
추모:2.0986122886681096
추모식:2.0986122886681096
추석:1.0
추수:2.0986122886681096
추억:1.1823215567939547
추운:1.6931471805599454
추적:1.4054651081081644
추진:2.0986122886681096
추천:1.0
축:1.4054651081081644
축구:1.1823215567939547
축복:2.0986122886681096
축제:1.0
축하:1.1823215567939547
춘천:1.4054651081081644
출국:1.6931471805599454
출근:1.1823215567939547
출금:2.0986122886681096
출력:1.4054651081081644
출발:1.1823215567939547
출산:1.4054651081081644
출시:1.6931471805599454
출원:2.0986122886681096
출장:1.0
출판:1.4054651081081644
춤:1.4054651081081644
충남:1.1823215567939547
충북:1.1823215567939547
충전:1.4054651081081644
충전기:1.6931471805599454
충주:1.4054651081081644
충청도:1.4054651081081644
충치:2.0986122886681096
취:1.6931471805599454
취득:1.4054651081081644
취미:1.1823215567939547
취소:1.0
취업:1.1823215567939547
측정:1.4054651081081644
치:1.1823215567939547
치과:1.6931471805599454
치료:1.1823215567939547
치아:2.0986122886681096
치유:1.1823215567939547
치의:2.0986122886681096
치즈:1.4054651081081644
치킨:1.4054651081081644
친:2.0986122886681096
친구:1.0
친목:1.6931471805599454
친선:1.6931471805599454
친정:2.0986122886681096
친척:1.6931471805599454
친한:1.6931471805599454
친화:1.0
친환경:1.0
칠:1.0
칠레:1.6931471805599454
침구:1.6931471805599454
침대:1.6931471805599454
카:1.1823215567939547
카누:1.4054651081081644
카니발:1.4054651081081644
카드:1.1823215567939547
카라:1.4054651081081644
카레:1.6931471805599454
카리브:1.4054651081081644
카메라:1.1823215567939547
카이로:2.0986122886681096
카자흐스탄:1.6931471805599454
카카오:1.1823215567939547
카타르:1.6931471805599454
카트:1.4054651081081644
카페:1.0
카펫:2.0986122886681096
칵테일:1.6931471805599454
칸:1.4054651081081644
칼:1.4054651081081644
칼리:1.6931471805599454
캄보디아:1.6931471805599454
캐:1.1823215567939547
캐나다:1.4054651081081644
캐리:1.4054651081081644
캐릭터:1.4054651081081644
캐주얼:1.4054651081081644
캐피탈:2.0986122886681096
캔:1.1823215567939547
캘:1.1823215567939547
캘리:1.1823215567939547
캘리포니아:2.0986122886681096
캠퍼스:1.4054651081081644
캠페인:1.1823215567939547
캠프:1.0
캠핑:1.1823215567939547
캣:1.4054651081081644
커리어:1.6931471805599454
커뮤니케이션:1.6931471805599454
커뮤니티:1.0
커버:1.6931471805599454
커트:1.6931471805599454
커튼:2.0986122886681096
커플:1.1823215567939547
커피:1.0
커피숍:1.4054651081081644
컨설턴트:1.6931471805599454
컨설팅:1.1823215567939547
컨셉:1.4054651081081644
컨텐츠:1.6931471805599454
컨퍼런스:1.1823215567939547
컬러:1.4054651081081644
컬렉션:1.4054651081081644
컬링:1.4054651081081644
컴:1.4054651081081644
컴퓨터:1.1823215567939547
컴퓨팅:2.0986122886681096
컷:1.6931471805599454
케냐:1.6931471805599454
케어:1.1823215567939547
케이:1.1823215567939547
케이블:2.0986122886681096
케이블카:1.4054651081081644
케이스:1.4054651081081644
케이크:1.4054651081081644
케이프:1.6931471805599454
코:1.1823215567939547
코드:1.1823215567939547
코딩:1.6931471805599454
코로:1.1823215567939547
코리아:1.4054651081081644
코미디:1.6931471805599454
코스:1.0
코스타리카:1.6931471805599454
코스프레:1.6931471805599454
코어:1.6931471805599454
코엑스:1.4054651081081644
코칭:1.4054651081081644
코트:1.4054651081081644
코펜하겐:1.6931471805599454
콘:1.4054651081081644
콘서트:1.4054651081081644
콘테스트:1.4054651081081644
콘텐츠:1.6931471805599454
콜롬비아:1.6931471805599454
콩고:2.0986122886681096
쿠:1.1823215567939547
쿠바:1.6931471805599454
쿠션:2.0986122886681096
쿠웨이트:1.6931471805599454
쿠키:1.6931471805599454
쿠폰:1.4054651081081644
퀘:1.6931471805599454
퀴즈:1.4054651081081644
퀵:1.4054651081081644
퀸:1.6931471805599454
퀼:1.6931471805599454
크:1.1823215567939547
크라:1.1823215567939547
크라이:1.6931471805599454
크레:1.6931471805599454
크로:1.4054651081081644
크로스:1.1823215567939547
크로아티아:1.6931471805599454
크루즈:1.4054651081081644
크리스마스:1.1823215567939547
크리에이티브:1.6931471805599454
큰:2.0986122886681096
클라우드:1.6931471805599454
클라이:1.6931471805599454
클라이언트:1.6931471805599454
클래스:1.0
[...]
